#version: 0.2
@ @
E R
A S
B AS
S C
BAS H
C K
D O
CK ER
DO CKER
I T
A L
L IT
ER AL
LIT ERAL
G E
P A
M E
A R
T H
PA TH
N D
A ND
P T
R E
GE T
A GE
ME M
O N
@@ /
U R
A PT
i n
PA CK
PACK AGE
D I
U N
a r
L E
C H
S I
R M
T AR
UR L
C O
e r
AR G
I N
O R
R I
N A
RE C
NA ME
SC RI
SCRI PT
A T
R UN
C URL
d e
c o
l i
DI R
S U
P Y
V ER
s t
I M
IM AGE
E N
K DIR
a l
B LE
e t
CO PY
CH O
e n
C AT
SU DO
SI ON
C ON
A P
TAR GET
A BLE
A D
PATH S
N O
C E
I F
o c
F I
REC T
DI RECT
s r
M KDIR
li b
M O
AD D
E CHO
S T
AP K
_ VER
AR I
l e
V ARI
VARI ABLE
_VER SION
W N
r e
RE DIRECT
CON CAT
o n
C M
a p
$ {
S E
MO D
EN V
IT E
R O
K E
AL L
P O
u sr
CM D
o p
b in
t ar
P G
c h
FI LE
i t
co m
E X
IN ST
a n
I P
INST ALL
a s
L O
ITE M
G PG
: /
g z
h t
S O
o r
t p
UR CE
SO URCE
CH MOD
P IP
ht tp
K NO
KNO WN
UN KNOWN
/ @@
a t
:/ /
@@ .
r o
g o
s h
PACKAGE S
b u
L N
RO M
F ROM
e s
ar n
y arn
l in
l oc
m p
i l
F OR
de v
G O
U T
co n
A G
f i
I ON
loc al
S ER
S H
G N
T AG
SI GN
AS SIGN
CO M
u x
KE Y
N T
E S
6 4
V E
lin ux
en t
k e
Y ES
p y
EN T
http s
a d
u r
n o
et c
m a
u n
E L
t mp
U P
l o
SE D
C D
LO B
G LOB
g it
* @@
m e
T E
REC UR
SI VE
RECUR SIVE
p o
a c
k er
v er
op t
s er
R Y
t h
ITEM S
@@ *@@
U SER
@@ -
i p
FOR CE
U M
EX P
AR N
H S
Y ARN
A KE
oc ker
d o
u b
AT E
@@ ${
D E
Y UM
RE PO
P M
YARN _VERSION
no de
ap t
N PM
il d
t i
IN T
bu ild
PO INT
ENT RY
ENTRY POINT
Q U
ke y
ARG S
D ATE
t o
UP DATE
de b
v ar
W GET
W OR
d k
sr c
PA RE
ap p
} @@
op en
0 0
p h
WOR KDIR
e c
CH E
th on
CHO WN
a b
RE S
CAT ION
G IT
OR T
LO CATION
s s
a m
al l
con f
py thon
} /
M AKE
REC V
CO ND
s o
I L
j dk
IN E
IT ION
L I
COND ITION
2 5
NT S
SE T
e l
o t
PIP EL
PIPEL INE
u p
ar m
a g
+ @@
in e
H O
fi le
RE P
@@ +@@
i c
d ocker
G REP
ac k
NO DE
M V
in st
O W
ER R
B O
FI G
CON FIG
inst all
ERR OR
g et
PARE NTS
SH OW
t e
d i
ser ver
git h
o l
COM M
n et
NODE _VERSION
al p
HO ME
alp ine
li st
as e
in t
w n
OR Y
C P
an d
i o
ph p
gith ub
25 6
c a
A N
COMM AND
REDIRECT S
s i
COM P
t u
lo ad
RE MO
h o
r y
j s
k g
ch e
do wn
U RE
TE D
GO PATH
DIRECT ORY
QU O
QUO TED
L HS
R HS
bu n
SH A
} .
p kg
g in
c ur
u l
t r
RES SION
EXP RESSION
down load
c i
S Y
O P
com m
F A
P ORT
u t
AS E
w w
1 0
P H
bun tu
e d
O UT
MOD E
SU M
C A
z ip
CONFIG URE
or g
@@ $
at e
TH ON
8 6
PY THON
ro ot
E C
u buntu
L IN
r i
8 0
r un
p ro
s et
} -
LI C
PO SE
GO _VERSION
LIN K
open jdk
u i
PH P
d 64
SI LE
SILE NT
am d64
FA IL
fi g
M BO
arm v
SY MBO
SYMBO LIC
AR Y
P UT
g c
REMO TE
EX POSE
OUT PUT
armv 7
con fig
ch ro
g le
b o
" @@
ent ry
SER VER
E T
s e
@@. @@
chro me
CA CHE
f o
EX EC
po int
s q
as c
t s
e p
entry point
al en
x t
EXEC UT
EXECUT ABLE
v i
U ME
AP P
1 6
re le
@@. /
_ HOME
m o
oc s
ho me
KEY SERVER
D ocker
KEY S
@@ "
ur c
an g
b alen
balen a
gin x
n ginx
i an
1 2
C ASE
cur l
as h
to ol
- @@
so urc
QU I
@@/ @@
comm and
v e
ar ch
d at
IF Y
Docker file
VER IFY
_ URL
il s
CHE CK
DO U
DOU BLE
h f
ST RI
o gle
r c
c at
STRI P
7 7
b e
deb ian
m l
ON ENT
COMP ONENT
go ogle
list s
ar e
p ack
COMPONENT S
a v
sq l
G RO
B U
l u
yarn pkg
key server
ss l
p g
d ri
1 5
/ ${
ti on
GRO UP
1 4
l ang
CM AKE
ab le
dri ver
a w
e m
d b
s c
L A
a f
E ND
ma ke
e x
1 3
download s
D N
u e
2 0
ar t
/ .
armv7 hf
pack ag
in g
ca che
lo g
dat a
QUI ET
W R
O VER
O L
WR ITE
A V
APP END
1 1
OVER WRITE
DN F
s ec
COM ME
b ash
e b
o s
EX T
I D
RE COMME
RECOMME ND
RECOMMEND S
9 9
h e
s u
p m
TARGET S
- -
IL D
UN ARY
gc c
tool s
p er
BU ILD
un d
j re
m y
er ti
N G
p ip
ma in
EXP ORT
d a
l ate
av a
0 4
ww w
C LE
AV A
J AVA
GE M
ep s
rele ase
1 7
t xt
p or
D eps
EXPRESSION S
AT CH
k s
sh are
st art
b ase
s y
CLE AN
D PHP
Z IP
FI ND
c li
ci rc
V OL
f a
S _
go lang
circ le
VOL UME
u s
sourc es
z on
j ar
a che
d u
ch o
T T
j ava
L L
NAME S
O T
UN ZIP
st r
C L
late st
g r
o ut
chrome driver
x 86
m ent
LI B
B ATCH
SI NG
COMP RES
et ch
COMPRES SED
2 4
i al
pg p
s 3
e cho
in i
_ DIR
ap ache
to m
l a
EL L
f f
w or
SH ELL
p p
@@ '
i s
g e
et a
i on
P K
do t
d ocs
er e
PK G
SING LE
de p
N S
te st
th e
DO LL
DOLL AR
balena lib
a u
AS SU
ASSU ME
re s
lin k
PARE NS
: $
aw s
ON E
_ 64
es s
p r
di st
ASSUME YES
@@- -
s sh
AR CH
le ss
po st
x86 _64
1 8
P LA
g n
u st
6 5
s or
st er
es si
o ur
w get
9 7
00 0
3 4
re q
DO C
0 8
N o
he ad
RE T
con t
a ma
fi cat
w as
0 9
fo und
c erti
dev el
tr ue
dot net
js on
CL ONE
python 3
certi ficat
certificat es
my sql
f t
ul d
ui de
ab out
sec tion
packag es
D ocs
ama zon
eta ils
co uld
G uide
H ere
D etails
RET RY
po ol
U PG
u ser
O WN
essi e
j essie
A F
amazon aws
OWN ER
c e
U E
d l
post g
w eb
8 8
ui re
si on
sc r
UME NT
circle ci
DOC UMENT
ment s
co re
ag e
ER N
x z
PLA CE
in it
i ve
_ amd64
st able
node js
_ linux
D PKG
R AD
m it
req uire
set up
F D
lib c
E D
fi re
PA TT
PATT ERN
9 0
s up
head less
a y
EL SE
s p
B IN
m i
FI X
s ks
require ments
keyserver s
com po
RAD E
UPG RADE
b ack
LO G
h a
3 2
as es
_ RE
re po
gc r
C 2
= =
5 5
D Y
fo x
ut ils
b z
fire fox
rele ases
er s
ec t
_ PATH
JAVA _HOME
m an
cli ent
arm 64
sourc e
BO DY
lib g
v ic
t er
scr ip
_ P
x ml
armv7 l
A A
bz 2
4 4
6 6
p e
c t
T O
A UT
build Deps
i d
. @@
REMO VE
lib ssl
AUT O
E NA
2 8
LE ASE
sup er
C 5
i ma
W IT
UT F
v m
r ub
6 00
ec k
di s
ma ster
u d
s bin
ENA BLE
so ft
en d
ess ent
ed u
vi sor
essent ial
p at
rub y
as s
- ${
P ER
php 7
_ M
t gz
super visor
_ F
C T
_linux 64
BIN ARY
0 D
fa ul
F 5
ho st
s it
bo o
arch ive
d ate
au to
RE FIX
a in
su do
u m
VERIFY S
M P
F F
B I
ser vic
C _
res in
x y
d f
_RE LEASE
ti me
6 A
le s
di r
st or
an tom
g i
ph antom
TE ND
n e
AN G
phantom js
por t
b it
f or
q u
en v
it y
V I
c r
WIT H
77 7
file s
ust y
L ANG
V AL
d c
3 3
r ent
O PT
te e
0 10
m on
SU B
5 4
VAL UE
ht ml
a k
ad o
ap i
_ U
scrip ts
p re
w it
lib p
f etch
D RI
de faul
mo d
pp a
G ID
packag e
R A
k ub
L D
c f
DRI VER
compo ser
open ssl
6 C2
str etch
c lu
TH EN
p lu
cur rent
a me
ap k
2 2
st em
VER SION
mo du
l l
UR GE
g en
stor age
1 9
af e
P URGE
ti ve
n on
up date
int er
24 97
17 F
BUILD _
B _
p ub
08 14
3 7
comm on
16 600
65 99
6C2 13
FD 2497
AA 17F
C5 16600
0D FD2497
6A 010
0814 6C213
6599 AA17F
C516600 6599AA17F
0DFD2497 F5
6A010 C5166006599AA17F
08146C213 0DFD2497F5
6A010C5166006599AA17F 08146C2130DFD2497F5
RO OT
R ON
defaul t
lo w
S AF
P RO
servic e
m d
PER M
pro j
@@- @@
s afe
por ts
st at
SAF E
dep s
8 5
sy stem
UN SAFE
co de
LOG IN
n s
c make
bo x
8 3
postg re
un safe
fetch Deps
2 6
chromedriver _linux64
com p
n g
postgre sql
per m
a arch
aarch 64
i b
a st
ver sion
= /
_ current
AS S
li c
_current _amd64
z lib
D EL
BI AN
DE BIAN
stable _current_amd64
b a
d pkg
wor k
ac tive
z e
SUB SHELL
E M
RO ME
lib f
CH ROME
back ports
c ent
a mp
RON TEND
8 4
r ack
tr usty
un zip
m in
plu gin
DI S
0 1
k in
_F RONTEND
ap is
DEBIAN _FRONTEND
h ado
apache 2
f s
f l
hado op
on e
b c
3 86
N ET
google apis
clu de
tom cat
rack et
f e
c lo
m ic
in gle
B racket
B A
n pm
m v
O OT
w s
R T
OR OOT
G OROOT
ar k
r or
0 6
S ingle
; @@
Single Bracket
3 c
K I
b b
pr op
c p
3 B
lib x
on t
_ S
5 7
GLOB AL
c u
cent os
inter active
qu ay
v 1
e xt
libssl 1
_U S
B S
in clude
ma v
en _US
s n
re dis
@@. /@@
el ast
c d
0 7
s dk
erti es
non interactive
BAS E
C RE
80 80
& &
J O
P REFIX
h el
prop erties
2 3
T I
pro xy
F O
8 7
5 6
elast ic
se arch
T R
@@ ~
i r
IN G
20 1
QUI RE
DE P
n c
9 2
p i
stat ic
CHROME DRIVER
RE QUIRE
ac le
gn u
f b
REQUIRE ME
f low
* .
mav en
w are
REQUIREME NTS
JO BS
f pm
LA B
j u
ul l
: :
VI RT
or acle
U AL
te mp
p c
j en
m q
eck o
3 9
CRE ATE
kin s
clo ud
A _
x 64
t k
con da
vi m
@@" /
@@ @@
re ak
L _
per l
jen kins
php 5
r pm
LAB EL
g ecko
gecko driver
T r
un ch
tar get
ER E
= @@
U LE
t or
* *
U ID
k p
9 4
a li
g er
r a
ST EM
7 6
SY STEM
P E
KI ND
LABEL S
B reak
C ase
Case Break
OP EN
cont ain
m et
go su
t y
or a
v 3
5 0
am l
la unch
ima ge
e 4
2 c
D K
d 4
_ NAME
E B
mic ro
c v
MOD ULE
R AN
at ion
b le
i x
li te
oc k
ar d
ar i
7 4
ac e
s l
cu da
c md
ui d
t en
or i
s w
pr oc
l d
bu s
l s
bo ot
gn up
elastic search
boo st
X _
h kp
pro to
n ss
\ /
F L
as p
c n
ima g
c 4
6 8
i 386
wit ch
n ame
_ LIB
f ed
de n
p ass
mon go
1 g
soft ware
gnup g
9 3
j q
st dc
S S
CHROMEDRIVER _RELEASE
_M A
supervisor d
D AT
a e
ap h
loc k
kub e
c er
d ns
zlib 1g
c s
TE MP
ry p
x v
modu les
r aw
RAN CH
d bus
1 00
D B
o m
p ad
B RANCH
_ REPO
d y
i m
f r
7 8
T Y
PHP _
) @@
lib stdc
c tion
el l
a 5
co in
3 0
H TT
py ter
JAVA _
i ze
pat ch
ju pyter
HTT P
gr aph
2 7
e g
ag ent
wor d
p ar
HO ST
at or
f er
at ch
n an
in fo
_ FILE
_ USER
cont ent
di a
ten sor
imag es
1 000
m b
open ssh
p l
node source
libc 6
TR UE
as o
d er
an a
ke ep
c l
en able
lib j
i f
VIRT UAL
fed ora
micro soft
bu g
n ull
_ ROOT
launch pad
v 2
ro id
proj ect
2 9
f re
f 4
install er
y aml
d r
s and
lib s
tr an
D A
nss witch
k i
DIS ABLE
u re
r ror
aso und
DAT A
R e
SH AS
SHAS UM
lib asound
ac c
sand box
S _VERSION
libasound 2
2 b
o o
1 e
S 256
SHASUM S256
sudo ers
w in
plugin s
S IT
DO T
9 8
al se
. *
k a
s li
lib gcc
sr v
SHA 256
g ro
/ $
i g
SIT ORY
an t
CHECK OUT
3 5
9 b
sp ark
lib dbus
amp le
tensor flow
S Q
l ab
p et
FI RE
0 5
sit e
LO AD
auto conf
DOT NET
TY PE
7 5
zip 2
de x
1 d
pro du
b zip2
bu f
ic k
m ini
lib xml
x f
0 3
m s
sy s
c 5
de bug
U B
OPT ION
L ATE
a 4
REPO SITORY
sq lite
ur ity
J OR
x en
2 1
P ASS
postg res
b 5
sli m
@@. .@@
FIRE FO
d oc
H ERE
AG S
v 0
ex ec
FIREFO X
M K
ne o
t ini
q t
@@ :
lin e
9 B
repo s
G LIB
f alse
ER _
mo z
R ARY
pe g
c ryp
n am
A r
y ml
sec urity
: ${
xen ial
au th
FIREFOX _URL
1 D
vi r
@@@@ @
zon e
_ INSTALL
A NT
WOR D
f 8
cont ro
ad min
l et
re ad
7 3
c c
4 j
proto buf
A IN
bu ser
libxml 2
1 b
y pe
' @@
nan o
LATE ST
and roid
MK TEMP
I _
con tr
O M
pat h
so l
_MA JOR
en ce
w er
BO SE
c 6
u buser
system d
L in
docker ize
gith ubuser
githubuser content
re gi
si ble
U L
app s
VER BOSE
B IT
lib tool
d _
T _
st re
= "
A 4
modu le
n u
RARY _PATH
_P REFIX
W D
. /
setup tools
e v
lo y
O p
c re
x _
Ar ch
Z E
compo se
8 9
co r
COMM IT
o b
run time
str ap
s k
an sible
m er
3 6
in dex
I n
H A
IN _
contain er
CT URE
ARCH ITE
ARCHITE CTURE
il la
LATEST _RELEASE
boo k
c 64
bash rc
C U
s es
d d
un i
M Y
p s
a 2
@@~ /.
lib boost
st ry
mi rror
an go
f tp
auto make
! @@
n el
g d
FL AGS
DO WN
b l
host s
TO M
regi stry
w h
bit coin
ch mod
DOCKER _
node _
r et
1 f
pp c64
ba z
ro s
boot strap
g libc
em on
_LIB RARY_PATH
N E
_ ENV
e 8
asp net
ed ge
LD _LIBRARY_PATH
sy nc
Tr ue
dep loy
TOM CAT
s on
build _
lib u
man ag
F E
@@" "@@
f y
s a
D D
install _
at h
7 55
RE GE
b ot
stre am
DOWN LOAD
X P
f c
or y
A CT
C C
Lin ux
baz el
da emon
ch eck
@@ {
w ar
st ash
l y
ad d
or t
JAVA _VERSION
I O
c ar
arm hf
2 e
moz illa
REGE XP
L C_
PATH TO
OR BUILD
SOURCE ORBUILD
PATHTO SOURCEORBUILD
L U
w r
m ul
pro file
wit h
t t
j vm
af ka
libf fi
S _URL
k it
lib 64
contr ib
dep en
g pg
sit es
i ft
GO _
libp ng
C 4
http d
c b
libj peg
CO RE
ci es
ex port
g lib
n etc
neo 4j
tran s
ma g
GEM S
- $
CON F
6 0
201 80
ar ti
lib l
h ub
re ct
aspnet core
DEP TH
m es
ll vm
9 d
int el
S er
bo ard
FILE NAME
D S
k r
4 7
R C
0 f
% %
m us
la y
m ap
X X
CON T
h y
me m
LC_ ALL
den cies
20 18
mo de
ct l
S PA
s ed
st ack
ex tr
HA DO
c lang
t op
HADO OP
c 8
0 b
9 a
b io
ar y
ic u
MY SQ
mp eg
log s
produ ction
contro ll
depen dencies
A E
fer ence
M I
pass word
NG IN
al le
re st
local es
no te
te xt
x debug
sn ip
et ype
en g
n t
le an
1 a
OPT S
_ 1
e f
y um
I VE
w he
for m
ma il
3 000
k afka
fi x
u ch
b er
libu v
libg tk
gr ad
key s
@@$ (
lib curl
9 5
1 64
BA CK
AND RO
it e
TO OL
manag er
ur l
FA UL
@@ !@@
lu a
DE FAUL
PH ANT
PHANT OM
p do
on ts
ANDRO ID
F 4
python 2
cryp t
repo sit
2 A
EC T
I G
@@/ .
do ws
dis able
te d
open cv
li cat
/ ^
n al
d 7
r ic
= ${
ect or
_ PORT
st s
DI ST
PHANTOM J
sh ar
snip pet
node_ modules
g re
mul ti
_S DK
grad le
3 f
o re
INSTALL S
mongo db
G I
DOCKER _URL
I ZE
SE C
TI ME
di rect
cf g
mus l
mp y
SH AR
0 c
M Q
_ version
G em
_ init
end or
n i
Gem file
er ror
win dows
3 8
v endor
s ub
licat ion
9 6
w a
_ sh
_P ASS
set s
n at
cur ses
n vi
ro xy
ock et
z oo
op cache
nvi dia
s ci
PLA Y
en sion
ab b
test s
1 _amd64
o u
f 5
. .
n er
ppc64 le
app er
n curses
sl t
co l
ker nel
build er
PASS WD
PHANTOMJ S_URL
di o
d le
: @@
w e
c k
ph ar
eng ine
lib r
_ C
op er
sqlite 3
d h
\ .
ff e
_ COMMIT
amp les
m x
o g
gen er
_ SHA256
wor ks
201 90
keep er
ont config
D e
ion ic
6 2
T ER
b t
as sets
sol r
D eb
lo t
cr on
as k
lo b
p ing
g em
NO PASSWD
A _VERSION
a de
AD V
a 8
C h
D B_
R K
ari es
geckodriver _linux64
7 b
nu mpy
Op en
@@ [
OPEN SS
Deb ian
n n
ne w
b ionic
T S
ing s
p a
C _VERSION
lic y
b ro
start up
log stash
ld ap
sc al
8 u
SHAR ED
Y _
t a
DIS PLAY
fa st
5 8
c lean
f ro
i le
ib ana
r ust
lib icu
un ity
# #
te x
abb ix
6 7
libx slt
12 8
ws gi
f d
F _
2 _
z abbix
f onts
p ace
pub lic
tion s
w ay
con n
ver se
arm or
x 2
u se
_ config
B B
un it
3 1
k ibana
B 6
f il
postg is
ad v
ge o
w i
app armor
H E
ex ample
b is
/ *@@
in d
TE ST
cer ts
y p
IN I
y thon
@@ *.
2 86
a5 12
SPA RK
ab bit
f ac
lin t
ext ension
NODE _ENV
n l
in j
enable d
shar ed
U buntu
EX TEND
RA CE
A _HOME
ri bu
EXTEND ED
V M
zoo keeper
sh ell
GN UPG
y es
ch ain
A C
AS P
GNUPG HOME
X _VERSION
o ot
j et
n proc
local time
4 e
1 A4
NE O
DOCKER _VERSION
back up
2 d
8 000
p ri
ad b
s che
WOR K
hy per
4 66
4 J
local host
po licy
CONT AIN
8 df
I R
p u
lic en
trans port
t ils
m crypt
5 a
86 F
DOCKER IZE
ASP NET
D _
O S
s bt
ASPNET CORE
6 b
zone info
comm unity
o ff
dist ribu
_sh a512
ava il
head ers
ag s
NEO 4J
d 8
g s
mag ick
l at
m k
z er
comp let
le ase
acc ess
s3 90
r abbit
B E
le ct
app lication
scrip t
mirror s
O FF
_ module
pdo _
$ (
i mp
M a
" |
tp ut
bun dle
} "@@
p il
7 9
c il
100 1
T Z
s d
sn ap
v 4
_ 0
avail able
_ BUILD_
@@~ /
web apps
5 2
re cv
o v
" ;@@
h df
scr atch
s390 x
8 F
s v
44 E
lin g
A M
net es
3 F
lib z
set uid
test ing
h ap
mem cache
kub er
ff mpeg
libg conf
B RACE
contain ers
1 c
I C
IG NO
works pace
ssh d
mini conda
c ro
A 13
_PASS WORD
bu tils
86F 44E
86F44E 2A
f 6
gro up
3B AF
88 86F44E2A
EB 9B
1D 8886F44E2A
EB9B 1D8886F44E2A
libgtk 3
us butils
54 3B
85 3BAF
Tr usty
cn f
DA 1A4
164 EB9B1D8886F44E2A
466 853BAF
A13 543B
DA1A4 A13543B
466853BAF 164EB9B1D8886F44E2A
DA1A4A13543B 466853BAF164EB9B1D8886F44E2A
== ==
vir tu
B C
xz f
env _
kr b5
MYSQ L_
do m
e w
kuber netes
note book
dpkg Arch
g ht
r h
ep el
PRO G
Re lease
libp q
tor ch
a 6
et h
TAR B
temp late
rabbit mq
/ *.
A pp
http _
b eta
5 000
r b
mer cur
U AGE
ab i
In st
k no
LANG UAGE
_ RUN
_ CONFIG
bin d
hap roxy
77 0
P R
e 5
s m
as m
/ #
tu re
q em
mercur ial
C 1
t ur
S S_
he us
met heus
4 8
NA P
SE _
ou tput
TARB ALL
pro metheus
u te
ut il
ot e
A PA
po wer
ed _
COM POSE
libf re
xv fb
local e
bin aries
o ol
DEP S
env_ keep
m ari
_ ARCH
AF K
LD CONFIG
t cp
DRIVER _
con s
lo gin
controll er
B D
U S
get text
r an
pro t
at a
5 00
Ser ver
setup _
4 9
se linux
libf ontconfig
SET OPT
co uch
d t
APA CHE
PYTHON PATH
run _
j av
BASE _
DEFAUL TS
r sa
nat ive
L Y
etc d
S NAP
F 7
P ro
] @@
3 A
le x
ex amples
TI CK
w d
st and
mari adb
AL IN
fr ont
cer t
mp i
4 2
INSTALL _
' )
lu ent
TAG S
p and
E G
a 0
libfre etype
_ MODULE
EXT RA
r st
gr af
du mb
BACK TICK
BACKTICK ED
libcurl 4
t z
read line
j f
E 3
U ST
libfreetype 6
whe el
C ER
a 9
BU G
netc at
M ATCH
ip t
r u
M A
GE CO
c pp
ST AT
a i
l er
.. .@@
C on
r w
er lang
( '
_ ID
kno wn
ev ent
sec comp
S RC
servic es
0 2
_ KEY
PA T
e e
r m
str ing
e z
@@" ${
CK O
pre ss
bl ack
cro ss
W E
r sync
s el
li ve
8 1
wor ker
AS H
ori es
r and
CAT ALIN
ki e
00 5
CONTAIN ER
wa it
memcache d
de f
bo ss
CMAKE _INSTALL
complet ion
o k
GE CKO
RE AD
re ss
HTTP _
t ings
DE BUG
C RO
E 7
m ing
n a
s ample
t c
C AS
g ate
ust om
c 28
SH OT
BIT CO
sh ift
me dia
PO ST
G C
2 00
s 2
time zone
IF I
e 7
r af
get composer
s _
j boss
ud nn
bis on
MP EG
ori gin
J DK
Y _VERSION
J Q
20 19
up down
if updown
dat ab
u wsgi
fl ux
GROUP S
: -
er m
extr a
PYTHON _VERSION
ON LY
: \
K AFK
le d
_P RO
GLIB C_
l n
u dio
reposit ories
LD FLAGS
OPTION S
CT ION
a z
@@" $
cn i
4 0
back end
9 28
ip utils
SNAP SHOT
c 7
ALL OW
alen v
sp ec
virtu alenv
s ocket
B u
in c
a a
nam i
lib re
l as
COMPOSE _URL
c ap
gr pc
J ECT
_ T
m al
S V
] *
GECKO DRIVER_
d s
34 34
FF MPEG
oc ks
un ix
ect l
LATEST_RELEASE _URL
JQ _URL
GECKODRIVER_ LATEST_RELEASE_URL
de mo
DOCKERIZE _URL
e 6
ex e
90 circleci
hel per
g op
R UB
w an
L _VERSION
D U
DOWNLOAD _URL
ING _
xv f
set tings
LU G
ab ric
PR INT
op s
ac t
lat es
for ce
re m
il er
k o
3 a
W eb
al one
licen se
ag le
ang e
o db
K IN
d ash
p 80
ar ango
por ter
VER S
e st
req ue
DE ST
stand alone
@@. ./
CATALIN A_HOME
alpine linux
tz data
A 9
open shift
@@ =@@
dotnet _sha512
-- --
V C
temp lates
er y
Bu ild
si de
2 33
c ass
MI S
/ ?
init db
b lob
op am
lib sqlite3
fro m
TER M
and ra
JAVA_ OPTS
mi x
c ustom
j o
stream er
distribu tion
pip e
be agle
kub ectl
im x
f4 0
cons ul
pro vi
ec ts
** **
cass andra
v a
si d
AGE _
gz ip
sys log
J EN
JEN KIN
/ \
t in
linux 64
NEO4J _
si mp
ACT UAL
alle l
prot oc
b 3
a 7
S A
able s
qem u
acc ep
li mit
P in
PAT CH
@@ %
pg sql
AV EN
De faul
ACTUAL _URL
bit nami
sh a
b 2
VIRT USER
opt ion
be at
u g
f luent
s am
essi on
pr int
lib ncurses
end er
D UP
k 8
AR AN
CMAKE_INSTALL _PREFIX
LIB ER
int l
VI CE
a 20
@@" -
f 74
P L
\ )
RE F
d_ config
o f
B 9
c5 e
A B
ssh d_config
pil ot
b i
cs proj
P re
M AVEN
@@- -@@
ic e
cor n
f abric
WE B_
datab ase
P ack
K _
CO DE
ag es
IGNO RE
CER T
s ession
w atch
bu ster
par allel
IN IT
@@. .
dy nam
d 6
re sources
li ght
si gn
0 e
mes a
gr am
h i
end s
dl dt
led ger
it or
0b 09
" /
KNO W
qt 5
cr t
_linux _amd64
PRO DU
_SDK _VERSION
" $
ls b
DUP E
T F_
T _VERSION
V er
ma x
scal a
pro d
0 E
M o
DOTNET _VERSION
devel op
PASS WORD
in ference
2 a
up dat
f lex
0 16
c gi
to ml
arti fac
w p
@@ #
si a
12 7
S_ DIR
S h
hel p
_BUILD_ TYPE
APP _HOME
an on
tur bo
D java
66 B
b d
x build
sci py
in k
SO L
_URL S
9 000
tex live
wan ts
L o
tp lot
in flux
rest y
bin utils
HO UT
l _
d j
tplot lib
c y
ma tplotlib
son ar
graf ana
" \
f ul
e o
0 ubuntu
2 f
CMAKE _BUILD_TYPE
dl l
ex porter
9 c
}/ ${
_ HOST
dl er
d p
B F
b 08
0 _
clu ster
NGIN X_
a 34
WIT HOUT
k8 s
CK ET
v s
i 2c
PRO JECT
arango db
d 14
ov y
I CA
cre ate
bu sy
it ec
uni corn
U S_
be 5
o ver
v ali
sw ift
= (
gate way
GO LANG
p am
O _
T ING
u me
wr apper
M ON
bun dler
du mp
bio containers
hyper ledger
ran ch
UT C
tar y
ff c
TOMCAT _VERSION
: +
run ner
7 d4
do ut
P ython
s en
' ,
simp le
b ar
n d
GLIB C_VERSION
h ash
un known
PRODU CTION
U DE
AS M
itec ture
rst udio
_ 2
d 3
@@{ }@@
GO SU
vi ew
py pa
no tary
fre e
GI ST
r t
SET TING
DEST DIR
C F
ming w
7 c
comp iler
4 86
AP I
ip v4
vi z
arch itecture
un t
i v
en ch
P er
mb string
j ect
CRO SS_
" ,
b one
o d
AD M
20 6
vir on
mod s
g l
_ LOG
arti k
t x2
_M IN
LO W
busy box
co s
BUILD TAGS
po t
0ubuntu 1_amd64
proc ps
bc de
5 cd
44 f4
wh l
18 c8
JAVA_VERSION _MAJOR
li x
al y
ec 4e
\ (
98 34
73 bb
le arn
SER VICE
00 44f4
af 7d4
55 a34
84 73bb
fe be5
3c b08
57 9834
build_ 47
ef 016
8df 8473bb
770 3cb08
d14 8df8473bb
bcde 7703cb08
18c8 0044f4
ec4e af7d4
55a34 579834
febe5 ec4eaf7d4
ef016 febe5ec4eaf7d4
bcde7703cb08 18c80044f4
55a34579834 bcde7703cb0818c80044f4
ef016febe5ec4eaf7d4 55a34579834bcde7703cb0818c80044f4
ef016febe5ec4eaf7d455a34579834bcde7703cb0818c80044f4 d148df8473bb
power shell
_ name
_U ID
beagle bone
LIBER ICA
lib v
A U
lo ud
7 2
S ON
w ine
sq u
h ack
oper ator
pdo_ mysql
cd n
BU ND
b 4
C LI
rem ote
sec ure
Ver sion
xt erm
in et
de sk
or m
i py
SC AL
88 88
s ger
sger rand
B ER
pass wd
NGIN X_VERSION
@@{ @@
@@ }@@
GIST RY
W EB
i ch
bo dy
sc an
pc re
d g
@@ \
fo re
pl at
Ma ke
proj ects
A sia
r asp
org e
_ N
5 9
CHROMEDRIVER _VERSION
de d
hadoop 2
EN CE
RE ST
MATCH ING
e 25
M L
g yp
an dom
side car
_ build
p up
RE LEASE
at las
reque sts
geo ip
cr an
uni verse
fl ask
jet ty
AL P
44 7
.* /
KNOW AGE_
CHROME _VERSION
image magick
IFI CAT
so le
mi ss
st ore
LO C
hel lo
co ver
f u
mysql d
centos 7
v al
mon o
BUILD_ DATE
/ *
= $
ALP INE
GOSU _VERSION
Defaul ts
alpine 3
E _
go 1
open resty
updat es
G et
on g
sec ret
1 dc
f orge
c es
N B_
en viron
front end
! /
ma x_
k mod
fl y
5 c
_ _
ti anon
n Pin
pup pet
10 5
_RUN N
b 7
7 A
l p
D o
IFICAT E
C 8
desk top
ASPNETCORE _URLS
PYTHON _
ca ffe
77 9
G ST
start _
imp ort
$ @@
wh ich
3 97
p in
my _init
C ont
U se
RES S
bl as
ff 5
CERT IFICATE
A u
/ /@@
LE _
g a
h ar
an aly
c udnn
g unicorn
form at
ha i
7 a
mix er
h er
BITCO IN_
PHP_ INI
V P
Pre ference
[ .
U n
HE AD
lib bz2
man 1
54 5
A d
f un
lib open
net work
_MIN OR
N U
ubuntu 16
libr ary
C o
H o
reposit ory
SOL R
py 3
list en
0 F
DOTNET _SDK_VERSION
ur andom
ENABLE _
en ame
lib av
ub e
== @@
h base
hub ble
ipt ables
bb 0f
proc ess
3 E
k y
up load
si x
ED IT
s 6
_ SHA
tool set
OPENSS L_
i 6
m n
WITH _
fl ags
c it
. *@@
u sh
dot netc
dotnetc li
su m
04 4
B L
3 d
X Y
root fs
ARCH IVE
C om
re d
a ir
Ser vic
LOC AL
conda 3
P _
F LOW
p id
20 17
R un
col lect
z z
13 a
u 01
dj ango
web 2
S _HOME
boo ks
plat form
A 5
m at
lib 2
user s
ez y
_P LUG
hdf 5
x x
ri d
whe ezy
st dout
PATCH _REPO
add ress
comm ends
lab s
8 2
libpng 12
0 C
lib readline
gd al
R oot
_ TAG
e a
ker as
CL UDE
D ir
D A_
10 3
q ue
g pu
Op tions
web2 py
7 00
GLIB C
PHP_INI _DIR
m cr
s pr
F ER
1 90
EN G
U ser
f ull
libgcc 1
44 3
Open JDK
bo wer
proxy _init
_ re
g h
cryp to
controll ers
con sole
D P
c cache
18 c
3c 1
produ ct
mes os
ANDROID _HOME
U _
ang hai
conn ector
AU TH
RY PT
Make file
U ND
X mx
gener ic
C LO
E F
G o
S W
mo ve
a 3
ro ute
con v
SU F
ori z
C FLAGS
I ND
M ini
r syslog
influx db
h u
co o
CAS ES
ARAN GO_
m ath
_ BASE
ng x_
v ate
16 9
S_ PATH
dash board
7 2b
N C
ss api
SUF FIX
8 b
v el
ue abi
gn ueabi
web app
ED _
dev toolset
Ch eck
CU DA_
g li
i a
an ce
inj ector
NB_ USER
e 2
Sh anghai
y un
eg d
/. /
hel m
E A
K EN
_F L
ACT IVE
p lay
| |
CU DA
v ol
word press
+ =
ter raf
s ph
RA B
b ench
v 8
AGE NT
sidecar _
for tran
DATA BASE
sidecar_ injector
p t
terraf orm
RAB BIT
E 8
') ;@@
graph ite
i ro
libz mq
ENG INE
sh ado
libg l
g tk
t re
art ful
fl ag
b as
b or
FER ENCE
X 2
FO RM
DO M
:// +
ool s
RABBIT MQ
s al
w ild
sche ma
p em
lib event
* *@@
i st
m ock
er nal
sc li
libp cre
ca 9
fre etype
mode ls
://+ :
a ac
st e
= '
b on
LIC EN
1 ff
graph viz
g u
c pm
m ark
C RYPT
Inst all
_ server
service graph
cl ass
p n
re f
mode l
_ key
b 9
j ob
n ex
Pack age
g db
3 e
fr ame
C I
4 A
no t
A 8
A c
O S_
il l
source forge
build s
in a
AT ION
ag ger
ext ernal
_ W
m apper
n dk
IN_ CONTAINER
libncurses 5
C FD
m ar
mysql client
mini mal
ma ge
spr ing
m as
CON N
i6 86
_ SERVER
DI N
CONF _DIR
base image
libg ssapi
i um
RE GISTRY
mon itor
auth oriz
libicu 57
2 F
ER _VERSION
cos mic
as y
b y
BU FF
ali yun
DOTNET _RUNN
ING_ IN_CONTAINER
DOTNET_RUNN ING_IN_CONTAINER
A ss
bro w
U SE_
x 11
th read
PHP _VER
_linux _
in u
; /
e lix
gr ation
sub version
no body
docker _
pre fer
SEC URE
alle y
c 3
ade l
n v
proxy v2
POST G
K UB
ti cs
ST DIN
DO UT
aw scli
ubuntu _
0 66
g alley
24 0
G R
@@ %%
ENABLE D
4 85
D ERE
ul t
@@.. /.
_ c
r 0
cont inu
cit adel
LICEN SE
b re
lib mcrypt
bin ary
ci se
per f
1b 8
i sh
ec 2
9 1
Z B
v ent
EL _VERSION
la st
devel oper
RE AM
POSTG RES
6 17
linux _
authoriz ed_
_ e
aw k
libg lib2
E rror
} :/
si ze
DERE FERENCE
dh at
elix ir
U D
re dhat
g fortran
git lab
D 83
Y es
option s
al ph
MIS SING
k en
fil ename
a 06
g streamer
ur ation
den t
8 B
E tc
P ri
q uire
APP _DIR
t m
authorized_ keys
@@% @@
miss ion
BUFF ER
contro l
multi lib
environ ment
BA Z
2018 12
z xf
6 64
COM PO
ser v
ig ht
NEO4J_ TARBALL
F 04
sq li
+ +
tool chain
D 5
H U
er _
64 1
ere um
SEC COMP
COMPO SER
p w
art y
ST DOUT
ct f
lib yaml
PRO C
mn gr
r ender
dir mngr
S DK
r pc
dev ice
EDIT ABLE
s oc
coo kie
A MP
r hel
v c
H ASH
DP kg
Per mit
sph in
} :${
F FD
libp cap
92 a
couch base
64 6
pre cise
==== ====
r oc
al th
ip route
99 1
ge os
eth ereum
lib mysqlclient
vi d
my sqli
ser ve
h 5
a 44
bio docker
ppc64 el
1 _
BO O
brow ser
B RO
_ data
} /@@
7 F
Z ONE
ANDROID _
sh ot
IND EX
st der
en ces
DISABLE D
stder r
v nc
LI ST
SUB MODULE
SCAL A_VERSION
5 3
v o
ma ch
PHP _VERSION
c ab
GPG _
07 E
li sh
th en
APP _ROOT
man age
MAVEN _VERSION
9 e4
S o
S OR
b tr
VERSION S
@@# !/
v t
OR A
34 88
accep t
E 0
] \
Ass ume
t x
se lect
d4 c
_ install
PKG S
C4 F
pkg config
vi de
5 12
8 E
ul u
@@: @@
E 9B
O G
e q
co py
OPENSS L
ca iro
por ted
1d 0
25 4
BUFFER ED
1 be
15 12
33 06
8 32
01 00
continu um
comp ile
fil ter
libpcre 3
AP I_
ad f
sup ported
_ test
a x
gro ovy
b sd
d 0
hdf s
_ GROUP
66 ff
2d ac
UN BUFFERED
LIN G
FF mpeg
5 c6
PYTHON UNBUFFERED
S_ REF
32 ca
ASPNETCORE _VERSION
p ang
run Deps
P o
@@ ^
@@ ;@@
PA N
btr fs
" --
f ace
g id
gre ss
libxslt 1
1f 65
_M A_
ro t
EL AS
ul er
Lo gin
Ac quire
_ log
u sion
ST R
ol d
as l
S P
oc aml
1 80
F i
20 16
37 26
" :
m m
t f
FFMPEG _MA_
FFMPEG_MA_ PATCH_REPO
VE L
14 34
C 3B
_ dir
00 00
tr ust
AR M
cat al
ex pat
e4 e25
a6 1e
da de
da 1c
3c 2b
] ;
le g
php unit
config ure
87 ad
44 7b
multi verse
b 6
s av
conf new
3c 15
56 928
2c 89
sw agger
68 a44
libre ssl
ca9 fe
_ temp
be 1ff
26 9d
bc 87ad
76 9e4
76 da1c
c4 105
_FILE NAME
03 1b8
f8 a06
73 8df
a2 d4c
ffe 447b
f6 1434
a0 a61e
005 3c2b
c28 32ca
e7 169
ffc 68a44
5cd 485
5c 92a
397 5c92a
190 664
18c 3c15
066 c4105
240 ffe447b
617 5c6
1d0 ffc68a44
1512 240ffe447b
0100 1d0ffc68a44
66ff 76da1c
2dac 066c4105
1f65 2dac066c4105
3726 e4e25
dade e8
56928 5cd485
2c89 1f652dac066c4105
ca9fe 3726e4e25
be1ff dadee8
269d 6175c6
bc87ad bb0f
769e4 269d6175c6
031b8 be1ffdadee8
f8a06 c2832ca
738df 031b8be1ffdadee8
a2d4c 569285cd485
f61434 190664
a0a61e e7169
0053c2b 738df031b8be1ffdadee8
3975c92a 0053c2b738df031b8be1ffdadee8
1512240ffe447b ca9fe3726e4e25
01001d0ffc68a44 a2d4c569285cd485
66ff76da1c 18c3c15
2c891f652dac066c4105 66ff76da1c18c3c15
769e4269d6175c6 2c891f652dac066c410566ff76da1c18c3c15
f8a06c2832ca 01001d0ffc68a44a2d4c569285cd485
f61434190664 769e4269d6175c62c891f652dac066c410566ff76da1c18c3c15
a0a61ee7169 bc87adbb0f
1512240ffe447bca9fe3726e4e25 3975c92a0053c2b738df031b8be1ffdadee8
f8a06c2832ca01001d0ffc68a44a2d4c569285cd485 a0a61ee7169bc87adbb0f
f 37
al loc
df 4
L og
B RI
LIB DIR
sphin x
AT FORM
lib ti
cor p
lib so
or ity
DE V
ALPINE _
j peg
pg dg
' ;
f ind
or ange
90 B
jupyter _
9 65
io s
pand as
ARANGO_ PACKAGE
pang yp
cp u
develop ment
8 86
co v
pro gram
af x
work dir
al ling
pand oc
1 nodesource
T P
z ulu
post fix
iv es
APP _
Root Login
Permit RootLogin
E 75
SA ME
p ut
gin g
JAVA_ PACKAGE
_ rsa
py 2
UR I
extension s
d uler
SPARK _HOME
gro und
b 94
ac er
OL D
4 6
VC S_REF
on build
wor ld
o ss
couch db
h ink
ST D
Run time
@@ @
ME NT
N PROC
e y
lib seccomp
m nt
g lob
up al
car go
jet son
alph a
ALPINE_ GLIBC_
e 20
in o
build pack
tr a
GPG_ KEYS
0 34
6 B
QU ER
STAT IC
arangodb 3
S M
_ user
ac f
non e
FL U
o th
ADM IN
LO CK
n asm
ta il
BASE_ IMAGE
7 99
ch ar
inj a
artifac ts
prefer ences
a ke
g at
ro me
xv jf
- [.
9 12
APP _NAME
ad ata
00 1
DOM AIN
FFMPEG_MA_PATCH_REPO _
7 56
_ R
c ss
d n
con a
di um
3B 5
C V
m u
s pot
AN GE
tin y
r on
ret hink
09 D
host name
C ore
_ MODE
ec tive
gr ade
5 e
T INI
R OR
de ep
com pat
dr upal
conf d
LE VEL
fun ction
mv n
sha 256
_ BUILD
m and
sup port
@@ ****
black fire
mach ine
d 00
t ag
no login
7 14
E x
a 07
ne xt
_ app
< /
_ DEPS
sh m
_S RC
d 80
pipe line
sw ig
Ch rome
ns m
E 5
ut f8
47 e
arn ish
pro gs
lib X
ty p
A 1
A W
b at
ST REAM
base _
c5 d
g mp
pre stash
prestash op
7 80
docker file
ex p
ju li
IN SECURE
ac tion
he alth
dynam odb
z sh
ip s
r ay
DE B_
ul p
openjdk 8
nex us
bash _
la ve
Ho st
glob al
ti fy
rethink db
7 37
d art
i conv
m 2
op e
ORA CLE
0 a4
G RAD
P y
ph usion
config uration
TR UST
i e
W SO
q l
}- ${
6 9
le vel
eb c
26 7
HADOOP _HOME
ELAS TI
6 x
c 2c
fi sh
Con fig
Mini conda3
tt f
_PLUG IN
p ac
file beat
provi sion
1 12
x e
C4 64
deb conf
jf x
ranch er
_e ff
fluent d
dent ity
v arnish
core utils
8 c
i python
lib 32
py test
b5 b
snap shot
2019 04
> @@
93 55
DATA _DIR
j it
tr ay
99 9
met ric
3 66
bin tray
at o
par se
7 86
d ock
p ages
note books
34 3
extr as
d 10
TH READ
ed 5
ud p
open nsm
FF E
C XX
K _VERSION
JAVA_VERSION _MINOR
b ed
java 8
gn ut
TINI _VERSION
) \
9 C
lib web
so ap
ber ry
sche duler
V ID
ae 6
artik 5
ic s
39 fb
imx 6
P WD
FA BRI
pm 2
zer o
_eff ective
h ive
o x
t es
PG _MAJOR
be e
pre fix
V A
m 3
al a
EC 7A
url _effective
no arch
libc ap
** **@@
2 fc
08 9
_C LI
UN T
COND A
comm it
Pri ority
libg mp
d4 9
b f
ad dy
gop ath
ACTIVE MQ
in put
7 1D
cp an
h 2
} "
COMP IL
TEST S
E P
9 C5
ar a
al er
frame work
n vm
server core
4 5
8 BA
F RE
b an
o w
X ML
12 92
socket s
o do
GE N
conn ect
6 d
6 da
w 64
mem ory
CONN ECT
c6 c
A ction
I C_
Go ogle
F 09
m t
ac ti
24 1
_USER NAME
bre w
BAZ EL_VERSION
v env
w k
deb helper
gnu Arch
= \
C oo
_ DOWNLOAD_URL
PACKAGE _VERSION
ent er
me e
up grade
1d 78
DD 5
6 e5
o y
3B C
= >
config s
bc math
=" $
gnut ls
ed a9
mi um
TIME ZONE
D 64
O RM
T RI
si g
Fi les
_ BRANCH
b r
j our
DOCKER_ BUILDTAGS
Coo kie
G Z
C2 737
01 E3
92 F7
78 C2737
DD 8F
%% @@
AC 78C2737
52 88
233 8BA
545 D
D83 545D
E75 01E3
DD5 AC78C2737
92F7 D83545D
DD8F 2338BA
E7501E3 DD5AC78C2737
DD8F2338BA E7501E3DD5AC78C2737
DD8F2338BAE7501E3DD5AC78C2737 92F7D83545D
DE 3F
pub lish
sn mp
50 80
B6 85
2 B685
= $(
h ot
ot n
FA 68
04 15
97 EC7A
34 EB
FD 3A
66 1
28 4A
386 68
BA FA68
94 AE
74 343
DB E9B
75 C464
FE 447
DD 74343
31 F09
286 BC
79 C3B
66B 31F09
0C 66B31F09
libzmq 3
CFD 284A
F04 2B685
07E DE3F
90B DBE9B
799 0E
366 75C464
71D CFD284A
D64 BAFA68
5288 F042B685
97EC7A 07EDE3F
34EB 7990E
FD3A 5288F042B685
38668 286BC
94AE 36675C464
FE447 34EB7990E
DD74343 90BDBE9B
79C3B 38668286BC
0C66B31F09 FE44734EB7990E
71DCFD284A 79C3B38668286BC
D64BAFA68 DD7434390BDBE9B
97EC7A07EDE3F C1
FD3A5288F042B685 0C66B31F09FE44734EB7990E
94AE36675C464 D64BAFA68DD7434390BDBE9B
71DCFD284A79C3B38668286BC 97EC7A07EDE3FC1
94AE36675C464D64BAFA68DD7434390BDBE9B 9C5
al low
DE CRYPT
rust up
rot ate
9c 2
G RA
W S
N et
re source
do main
38 cf
soc at
T MP
V OR
ae 99
per cona
A4 C
analy tics
f 21
id _rsa
typ es
ib m
PROG RESS
17 50
oracle license
col or
gnueabi hf
' /
f 9
l vm
r mi
lib hdf5
CA 9
e or
t ls
ec 97
sc re
55 6b
gem s
over lay
jour nal
b ig
m h
s lave
23 64
5a 24
secure backup
AR D
ab d4
ca 44
9a 54
0c bb
to mee
ne u
RUB Y
g y
sam tools
v it
CH AIN
86 14
99 05
76 90
9b ff5
0f 99
103 77
C 6
T EN
y asm
el f
11 F4
08 E7
0D FF
e4 a20
c4 01
a5 a8
cc 54
CC 11F4
F4 E8
3f 1dc
fd 32
C1 A8
641 CC11F4
C4F 0DFF
09D 08E7
3BC 641CC11F4
2364 09D08E7
F4E8 C1A8
C4F0DFF F4E8C1A8
3BC641CC11F4 C8
236409D08E7 3BC641CC11F4C8
C4F0DFFF4E8C1A8 236409D08E73BC641CC11F4C8
1 d49
DI S_
lib protobuf
ad 2fc
ab 0415
25 886
25 714
32 128
32 b3
54 a3
83 f40
84 034
fe 965
39 c2c
c4 1d78
c4 e4a20
68 f74
93 d00
35 A4C
f8 9355
c6 b5b
89 ec97
e8 556b
c8 a20
AE 9905
7b 39fb
128 f74
B6 3B5
3F 25714
c28 93d00
233 83f40
f40 32128
b2 13a
B9 AE9905
c5e 991
c5e f4032128
0b09 8614
0b09 23383f40
486 ac
206 CA9
044 c5d
3c1 ca44
72b 6e5
b9 241
FFD 780
646 c6b5b
3488 cc54
254 044c5d
1be 646c6b5b
adf 7b39fb
df4 c5ef4032128
b94 f89355
STD ERR
acf 089
756 f21
a07 a5a8
0a4 7690
d10 72b6e5
ed5 3c1ca44
ae6 c41d78
1292 9c2
6da 0cbb
c6c 10377
eda9 abd4
5080 39c2c
661 B63B5
ae99 ec2
1750 ab0415
5a24 38cf
9a54 9bff5
0f99 c2893d00
c401 b213a
3f1dc 25886
fd32 d1072b6e5
1d49 acf089
ad2fc 1750ab0415
32b3 adf7b39fb
54a3 32b3adf7b39fb
84034 c4e4a20
fe965 486ac
68f74 6da0cbb
35A4C 206CA9
89ec97 508039c2c
c8a20 fd32d1072b6e5
128f74 0a47690
3F25714 661B63B5
B9AE9905 FFD780
c5e991 c401b213a
0b098614 b9241
0b0923383f40 ed53c1ca44
3488cc54 5a2438cf
254044c5d 3f1dc25886
1be646c6b5b 84034c4e4a20
df4c5ef4032128 eda9abd4
b94f89355 68f746da0cbb
756f21 a07a5a8
ae6c41d78 df4c5ef4032128eda9abd4
12929c2 128f740a47690
c6c10377 54a332b3adf7b39fb
9a549bff5 c8a20fd32d1072b6e5
0f99c2893d00 fe965486ac
1d49acf089 3488cc545a2438cf
ad2fc1750ab0415 0b098614b9241
89ec97508039c2c ad2fc1750ab04150b098614b9241
3F25714661B63B5 35A4C206CA9
B9AE9905FFD780 3F25714661B63B535A4C206CA9
c5e991c401b213a 0b0923383f40ed53c1ca44
254044c5d3f1dc25886 0f99c2893d00fe965486ac
1be646c6b5b84034c4e4a20 254044c5d3f1dc258860f99c2893d00fe965486ac
b94f8935568f746da0cbb 89ec97508039c2cad2fc1750ab04150b098614b9241
756f21a07a5a8 c6c1037754a332b3adf7b39fb
ae6c41d78df4c5ef4032128eda9abd4 9a549bff5c8a20fd32d1072b6e5
12929c2128f740a47690 c5e991c401b213a0b0923383f40ed53c1ca44
756f21a07a5a8c6c1037754a332b3adf7b39fb 1d49acf0893488cc545a2438cf
ae6c41d78df4c5ef4032128eda9abd49a549bff5c8a20fd32d1072b6e5 e8556b
12929c2128f740a47690c5e991c401b213a0b0923383f40ed53c1ca44 ae99ec2
ST A
an o
OPENSSL_ CONF
j ce
z mq
IN F
il ent
* \
3 C
i gn
lib magick
CA FFE
mi sc
met eor
jav aws
vali d
M ark
f x
to uch
wild fly
PRO TO
pre view
st ub
## *
I mage
INSTALL _DIR
APP ER_
37 9
az ure
c 0
v pn
in f
chro mium
t el
DN N
g ulp
x sl
z en
AS C
ent ic
mq tt
sk ip
/. @@
tt ng
h as
SU PER
py env
di sp
L ib
T e
to ken
OPEN CV
ac y
DIST RO
inet d
n oc
w lp
ma cs
11 1
notebook _config
libl z
a io
open mpi
em ent
s2 i
Y PE
dev ops
af 4
Servic e
" ${
SE S
MYSQ L
TIME OUT
a il
Com mand
3 _
O n
u c
urc e
I mp
ad 7
AUTO _
pl one
snap py
D APPER_
s le
0 d
3 ec
str ic
_S S
r s
t l
86 EB
_ PACKAGE
st y
log rotate
jupyter_ notebook_config
S B
d ic
VI DI
libl ttng
of fi
Mo du
libjpeg 62
mk dir
TRUST ED
N VIDI
de t
run t
nan op
GECO S
t dl
7 10
1 B
ryp t
gli de
odo o
d 66
64 4
-$ (
##* -@@
r ad
FABRI C_
d ar
39 8
un supported
Inst alling
G L
c el
GPG _KEY
am b
READ ME
_ DOWNLOAD
g host
libx 11
Z O
par am
Au to
R UST
py torch
F ile
SI ZE
SHA256 SUM
sh in
client s
gre p
INSTALL_ PKGS
pack 200
plu s
Re commends
RE V
su al
gre en
nl p
wk html
N ame
GEM _HOME
ust 0
m 4
s aw
SEC RET
n it
scre en
pam _
che f
ul ar
Re move
HADOOP _
rasp berry
lvm 2
D R
al k
SE ARCH
dr ush
SV T_
tm ux
b s
d ind
_M IR
_MIR ROR
7 E
J AR
_ file
di ff
EXTRA CT
7 0
wi ki
CAFFE _ROOT
---- ----
va ult
CLI ENT
1 10
n ux
am es
_ ENGINE
k u
ed A
inter nal
catal ina
E 6
M ARI
ipy kernel
libso dium
c an
so m
SQ L
la me
bu ck
limit ed
MARI AD
6 3
pro files
V CD
D F
sci kit
Imp ort
COMPIL ER
_ password
IN FO
xv z
TEN SOR
4 000
mongo d
EX PAN
87 A
libweb p
EXPAN SION
Z LIB
u ment
dr op
nam es
9 09
l an
WSO 2_
u dev
en ded
ap ack
PG DATA
HADOOP _VERSION
d m
@@ ==
SO CKET
ed it
VCD P
C I_
CO O
ST S
' ;@@
M S
t un
th ir
01 F
G it
_ p
on ent
@@~ @@
dns mas
dnsmas q
WSO2_ SERVER
C B
S top
s g
v f
@@/ ^
pe ar
do g
54 32
st d
21 C5
779 84
fi c
pkg s
18 1
C2 AA
maven 2
BB 928
BC 0F
A9 86EB
JENKIN S_
66B 01F
786 BC0F
21C5 87A
77984 A986EB
C2AA 786BC0F
BB928 21C587A
66B01F BB92821C587A
77984A986EB C2AA786BC0F
77984A986EBC2AA786BC0F 66B01FBB92821C587A
6 97
ar g
KAFK A_
> >
P I
to x
ERE PO
TOMCAT _MAJOR
0 33
6 db
OLD ER
RA IL
rw x
def ine
f ontconfig
fa il
x inetd
D 4
_ host
AS T
m tp
SON AR
fore ground
g or
lib apparmor
ic a
3 85
_ proxy
SCRIPT S_PATH
comp onent
dr one
e mail
j e
N EX
T ools
e macs
sle ep
! ^
h and
or n
ke ll
jdk 8
CMAKE _
str ip
_U SE_
container d
sk y
V ali
md ns
APACHE _
is k
Auto Remove
5 b
t cl
re l
sal t
QUER Y
VOR BI
p ec
z xvf
\ \
DB _VERSION
wr ap
SI BLE
or bis
20 15
Import ant
g st
j fr
at ed
80 81
squ it
h5 py
2 B
E 9
r pi
IN CLUDE
RUN C_
te am
gh c
Error Action
OG G
ErrorAction Preference
R DOC
f use
mo squit
ar ocks
lu arocks
gener ator
dev scripts
SPARK _
odb c
Vali d
U nt
ap r
" ;
RE DIS_
re comm
GRO UND
tes ser
Unt il
C CA
al f
stor m
tin ker
a 1
v 6
g runt
r f
0 x
c la
ev el
IGNO RES
login uid
NA M
@@./ ...@@
LA ME
api server
u uid
SU G
NO T
%% .*@@
mosquit to
user _name
ana conda
hyper kube
SUG GE
9 cf
CLO UD
pam_ loginuid
$ /
6 f
i de
har bor
tre e
r d
SOURCE _DIR
BINARY _URL
s an
so f
98 b
FE F
ALLOW _
BUND LE_
juli a
a ho
c ms
@@ !
no docs
USER NAME
pre 20180
mdns 4
E SUM
arch ives
xbuild 1
_ home
n inja
ex if
LATEST_RELEASE _
b lock
d 88
to oth
BOO ST
W W
ic ro
sel f
vit ess
SES SION
. .@@
N UM
re stric
bu il
ex it
h eck
st ar
ho use
ts flags
if y
COO KI
has kell
saw tooth
8 f
QU E
_ path
in te
on y
local _
LL VM
FD 4
sel en
3 57
a ster
@@ <
er ver
te le
pri se
_ exporter
s ock
db g
STA CK
G eo
m my
USER _NAME
si m
accep ted
ag r
CU DNN
noc heck
i dentity
sy n
ce e
nocheck valid
9 e
n b
late x
cmd build
STAT IC_
TENSOR FLOW
* /
LD AP
TR AN
M icro
P LE
active mq
met adata
ZB X_
s end
GOLANG _VERSION
tesser act
ur ope
APP DIR
vir t
TOOL CHAIN
Do wn
9 af4
t w
an y
vi sion
log 4j
scal e
licen ses
AMP LE
e asy
re g
w all
libcurl 3
REGISTRY _COMMIT
1 F
H T
W AR
p ay
TH E
li ty
K ey
S TAR
al lin
comp ute
gat ling
buck et
H UB
ELASTI C
NO _
oc r
INSTALL SUFFIX
jdk 1
si st
aspnetcore _sha512
open j
env oy
3 fa
dist ro
C ARG
_ SOURCE
db c
BUILD _DIR
provi der
9 83
HEAD ER
p wn
si s
TF_ NE
lib zip
dri ve
ro ut
em alloc
ont ab
## ##
18 n
1D 0
bu ff
_ ARGS
LIN U
28 e
2 E
_ policy
f in
rid ge
offi ce
SUGGE STS
f 3
g ent
lib xt
op us
USER _ID
_M D5
w ard
log ging
"$ @
co t
FILE S
du mmy
car bon
sv g
restric ted
DEFAUL T_
pt Mark
So urce
sav edA
shin y
savedA ptMark
sp i
mod _
AUTO_ GOPATH
NAM I_
i 18n
iproute 2
4 3
c addy
li p
bro ker
libgl 1
selen ium
_ SC
HU B_
ch ange
it ion
USER _HOME
libx ext
Down load
n ag
in ue
MON GO
BIT NAMI_
_SHA256 SUM
openj 9
ho ut
8 D
i es
x org
ec tion
25 5
RUB Y_VERSION
_ src
py pi
ag er
armv 6
77 5
cr ontab
GRAD LE
= .*
17 6
ftp d
_FL AGS
cab al
c acer
lib apache2
sy m
_ f
app user
ain er
kr allin
nit ro
_ h
lib systemd
hash i
_SS L_
O _VERSION
f be
deploy ments
Cont inue
b ab
s ur
lib db
3 04
E urope
lib t
si an
k ar
z ts
Pro gress
BITCO IN
R PM
tmp l
atlas sian
recomm ended
) .
mi gr
patch es
g ui
co ll
Recommends Important
Progress Preference
F S
lib ldap
gc p
56 7
ANDROID _SDK
ELASTIC SEARCH
hashi corp
vi s
O _HOME
COMM ON
stat us
_MA X_
WORD P
next cloud
be 0
mingw 32
1nodesource 1
? @@
P IC
S ilent
et ic
PKG _VERSION
qu ick
manag ement
2018 10
lib opencv
build bot
ly Continue
tr on
SV T
Silent lyContinue
H EL
v l
SPA CE
b all
PA M
as us
un link
lu ster
collect or
ANDROID_ ND
co d
TO KEN
REPOSITORY S
Micro soft
5 1
b ranch
p x
libg streamer
TEST _
defaul ts
07 55
JENKIN S_HOME
vide o
enter prise
6 379
R _VERSION
r x
BO OT
]* -
BL AS
p ng
GN U_
ser ial
bo und
gnupg 2
APACHE _RUN
imx 8
X2 65
SECCOMP _PATH
e i
o auth
mh art
co unt
REP LA
MODULE S
fast cgi
S K
c go
/ ;
l ts
ap cu
COOKI ES
REPLA CE
sp ace
wit hout
scan ner
hu go
7 f
= -
S t
_ IMAGE
un k
libx render
b ridge
o wn
ali as
THREAD S
r op
lib mp
16 3
77 8
AW S_
r dp
ol der
lang u
WEB_ PHP_
M y
d 39
g awk
PA R
moz def
raf t
watch dog
sign ing
S SH
ty pe
im g
ob js
DOCKERIZE _VERSION
pw gen
Modu le
c 1a
r al
s un
kit ra
memory _
agr ant
F T
W or
go v
SET OPTS
xz C
BASE _URL
libl apack
dynam ic
shado w
ME T
BI ND
stat s
=" ${
libl tdl
cert bot
C GO_
e ap
libc udnn
LOG _DIR
SS L
KAFK A_VERSION
n 1
pro be
shado ws
A pi
N ASM
v agrant
lib memcached
xy gen
windows servercore
CONDA _DIR
b last
h ab
s amples
el 7
libgtk 2
d 164
ho ok
BRO KEN
G D
version s
ra ke
pri vate
nitro gen
open ldap
LI CATION
kin etic
liblz ma
nitrogen 6x
ex clude
90 5
ki a
we st
od roid
n ight
me di
2 80
3 D
n map
r it
UN K
cho wn
sw arm
CL ASS
fs progs
secret s
do xygen
85 6
application s
WORDP RES
2 16
8 1e
D ata
_ max_
p op
sh ut
il y
doc ument
Ad opt
7 D
x J
tr ac
mx net
aler t
Adopt OpenJDK
3 00
time out
find utils
lib cairo
ET CH
au dio
AC CE
SW IF
5 37
ca li
c le
p ic
1 13
t ask
lib expat
vi e
SRC _DIR
acti vate
@@== =>
IO _
ni fi
SPARK _VERSION
run_ jupyter
CUDA_ PKG_VERSION
U p
lib krb5
ENT I
res co
DEP LO
inte gration
N I
run deps
19 00
BITCOIN_ DATA
VP 9
lib er
no re
og g
pdo_ pgsql
C ache
K ER
stub s
D i
U S_VERSION
n ing
de s
me sh
get h
15 600
rb env
GLIBC _VER
8E 09
M AN
l ar
| @@
CO L
run c
13 FEF
C2 E9
100 8E09
pl ace
AE 15600
nt l
20190 3
8F CCA
770 F7
A9 A5
1D0 C2E9
13FEF 1D0C2E9
1008E09 770F7
8FCCA 13FEF1D0C2E9
A9A5 AE15600
1008E09770F7 A9A5AE15600
8FCCA13FEF1D0C2E9 1008E09770F7A9A5AE15600
4 E
9 18
A 3
@@ ?@@
NA G
gr a
web site
PRO XY
jav afx
PL ATFORM
B 3
D evel
p arty
ra ils
jce _policy
A Y
r us
per i
fa as
bazel rc
cudnn 7
nux eo
N B
_ 4
EN SION
EXT ENSION
+ +@@
F ETCH
J CE
postgres file
/^ #
L i
_ HASH
c al
m db
p k
t d
27 0
X ms
OR _VERSION
lib atlas
go b
tr ain
sty le
ro w
DD 4
42 F
remote _
e u
MOD EL
/. ..@@
auto tools
2 37
ME DI
lo op
my app
cc ess
F 88
lib snappy
97 0
6 1
DEB_ BUILD_
st one
option al
6 a
EX CLUDE
}/ .
pi x
NEO4J_ URI
@@.. /@@
RUNC_ BUILDTAGS
C ASS
ti al
cr af
centos 6
ob j
we bu
3E FE
ch at
W _
i ali
an nel
ENA BL
gener ate
NEO4J _SHA256
ru les
/? .
B 42F
i so
IMAGE _VERSION
ST U
as se
sc l
03 6A
ngx_ http_
9C 25
0 25
2 12
26 b
par ser
c ython
e 1b
m c
AND RA
an tool
LIB TOOL
libg d
f5 14
libre office
RAIL S_
migr ate
S tr
e k
s f
64 FD4
00 F88
68 1900
add on
E3 64FD4
BF 357
7F 00F88
B42F 681900
036A 9C25
E364FD4 036A9C25
BF357 DD4
7F00F88 E364FD4036A9C25
B42F681900 7F00F88E364FD4036A9C25
B42F6819007F00F88E364FD4036A9C25 BF357DD4
/ /
D 7
lib ssh
cr ipt
W H
trust ed
: \/
F or
GET _
COMME NT
cuda 9
alf resco
8 12
C FF
tar antool
open stack
arm 32
n fs
q ui
lua jit
2 f5
st o
un bound
tel net
1 fb
a 86
j mx
nag ios
AN N
my admin
setup_ 8
X2 64
@@! =@@
6 E
re bar
ro ject
open vpn
php myadmin
metric s
_ J
_ L
w and
GIT HUB_
qu ery
CONTAIN ER_
ENABL EREPO
4 1
lib edit
temp Dir
_LIB S
de co
ap e
nc cl
rw X
inc ub
F _VERSION
c 1
v 7
ADD R
ur n
po m
core os
vi sual
raspberry pi
J AN
PG _VERSION
libx cb
JAVA_ UPDATE
a8 b
f 2
t ags
UN I
io js
ET CD
74 bb
im ap
CASS ANDRA
P ET
sh im
sen su
P U
j an
t le
le in
re sol
64 bit
sq uid
web devops
require d
OPEN CAS
sam ba
H ARD
] +@@
l sof
q ube
lib exec
ht op
tu res
sonar qube
ato mic
shadows ocks
_ DE
CM ake
as ci
bo to
20180 7
x2 65
( \
a om
lib dir
dns utils
NVIDI A_
co ur
en su
ab 8
el ay
MA IL
BUND LE
libopen blas
C R
de ck
ES _
13 5
pub key
level db
2 _VERSION
2 cd
r en
64 5
th is
1b 49
bas ic
asl 2
M e
Q T
d 9
de l
pre p
xvz f
3 18
DO LI
cat kin
str ong
aster isk
J ET
con text
OR I
ch all
ment al
LOG _
drive _c
A IR
T est
_ url
g p
28 77
code c
78 a
@@{ {
A l
D ST
H BASE
lib geos
@@' '@@
9b 64
libv orbis
A IL
_ r
su se
ce ph
cn tk
3 08
l amb
PIP _VERSION
lu a5
6 1e
\ "
_ release
re dir
EX AMPLE
go lint
gem rc
E n
j ovy
p ki
99 99
1e 1
9b 2
create _
GNU_ TYPE
libcairo 2
jovy an
P S
P S_
_ tools
i z
v ul
ul se
fo o
09 5
h2 o
j dbc
met er
class es
> =
P RE
AL LE
INT ER
env s
a8 e
AR T
xf onts
WORK SPACE
A gent
W l
opencv _
P ar
f link
fa 9b
gr ind
error s
c am
ut or
ficat ion
DEP END
TRAN S
DEPLO Y
D LD
d 5
de st
PKG _CONFIG
test _
TOMCAT _
9 14
T he
i me
ss e
gi r
mk l
8 e
J BO
lib ev
ux 86
23 00
qem ux86
LIBERICA _ARCH
libmagick wand
L S
_ BIN
RE SH
ec raft
ca 7
run it
user name
_INSTALL _DIR
HADOOP _PREFIX
S PH
AV 1
17 2
BUILD_ DEPS
nu ma
ps 1
3f ba
tex info
_T GZ
GST _VER
ASC _URL
B ase
P C
ed x
28 35
30 ec
0c 06
_N UM
CLASS PATH
2 14
SHA 1
fe 88
1a 87
TOOL S_
8c 88
2 man
M an
l z
RE DIS
li ent
av el
99 48
fc 7c
cacer ts
r 2
r ap
on ly
exp ect
DEB_BUILD_ GNU_TYPE
" )@@
i mi
65 5
97 b
xz vf
33 86
pc ntl
POST GI
3a 08
m ss
us b
the ora
57 c7
libfontconfig 1
ADM IN_
preview 5
1 16
2 000
7 ba
_ ver
_ files
y a
12 f37
be 47e
88 1b49
90 385
cf 2835
92 e20
76 be47e
ae 74bb
29 6db
2b 9b2
98 1a87
05 f514
a4 1fb
a4 9b64
1f 697
9a 90385
005 9a90385
c7 3386
2a 26b
2f 78a
ffc 2300
486 d
72 a49b64
98b 9948
d88 3a08
cee 0059a90385
9af4 fc7c
28e a41fb
be0 ae74bb
d39 c73386
970 2877
a8b 2b9b2
61e 881b49
1e1 cee0059a90385
fa9b 05f514
3fba 12f37
30ec 72a49b64
0c06 d883a08
fe88 3fba12f37
8c88 28ea41fb
57c7 981a87
cf2835 9702877
92e20 8c8828ea41fb
76be47e 1f697
296db 57c7981a87
2a26b fa9b05f514
2f78a 98b9948
ffc2300 2a26bfa9b05f514
9af4fc7c 0c06d883a08
be0ae74bb 486d
d39c73386 ffc23002a26bfa9b05f514
61e881b49 fe883fba12f37
1e1cee0059a90385 d39c73386ffc23002a26bfa9b05f514
30ec72a49b64 be0ae74bb486d
cf28359702877 a8b2b9b2
92e208c8828ea41fb 61e881b49fe883fba12f37
76be47e1f697 9af4fc7c0c06d883a08
296db57c7981a87 1e1cee0059a90385d39c73386ffc23002a26bfa9b05f514
2f78a98b9948 cf28359702877a8b2b9b2
92e208c8828ea41fb61e881b49fe883fba12f37 30ec72a49b64be0ae74bb486d
76be47e1f6979af4fc7c0c06d883a08 2f78a98b9948cf28359702877a8b2b9b2
296db57c7981a871e1cee0059a90385d39c73386ffc23002a26bfa9b05f514 c4
) ;
B 1
T ERR
o tp
CON SU
no ti
pip env
web pack
FO RE
_1 _
REST Y_
ste am
ht docs
var s
ep pe
for ward
Co mp
Servic es
cel ery
i us
k et
re al
re lic
/ "@@
T _HOME
CP P
arch linux
NU GET_
file system
log back
MP 3
libs asl2
ni k
cla mav
elay out
L LING
_ base
ir a
sl ack
linux_ x86_64
MP3 LAME
O r
X Y_
_ G
lib dev
JAVA _URL
min ecraft
disp lay
\ [
RE SET
sp e
shut it
m atch
o de
no se
LU A
squ ery
7 e
S et
_ OPTS
y o
er v
py py
@@' /
libp aho
tor rent
XML DOC
4 ED
D _VERSION
le c
no w
18 9
TI VE
air flow
ANGE D
NUGET_ XMLDOC
libdev mapper
E 84
ca st
tr ace
af c
_LIB DIR
libr aries
OPENSS L_VERSION
b 17
get _
fe at
cover age
NUGET_XMLDOC _MODE
F C
st op
up stream
auth entic
@@../. ./
FRE ET
B ANGED
M ag
U SE
b atch
o squery
GE O
fa ker
vol ume
ANDROID_ND K
_ D
ch ec
nl tk
val grind
neu ro
night ly
P ip
_ OPTIONS
} \
ac tor
88 c
fre es
PA CE
BU CKET
20 4
new relic
FREET YPE
! \
g ala
r vm
lib nss
re p
PO LLING
an s
con su
wr it
P ass
Q t
65 c
PE G
_SSL_ MODULE
1 e4
b 3c
ch er
as er
10 1
PHP IZE
init _
_FILE _W
PHPIZE _DEPS
C Y
S tar
AL _
tu tor
92 00
sm _
A dd
J UNK
c 66
m ess
do ve
tr u
open hab
20180 5
tcp dump
langu age
cali co
R el
X DEBUG
b be
NA TIVE
17 85
sen crypt
job s
g perf
@@ ==@@
APT _MIRROR
ubuntu_ install_
eppe lin
MEM ORY
al con
SOURCE S
let sencrypt
Au th
je ky
I d
S ize
dat ion
sc m
COMPOSER _
TRI PLE
9 84
_ hosts
ti dy
libs dl
DEFAUL T
_LOG _DIR
Devel op
dove cot
x m
ori ent
2e 5
/ :$
} }@@
AF ORM
pe ed
ze bo
launch er
direct ory
WEB_ DOCUMENT
gala xy
se ed
FORE GROUND
O D
c 9
TENSORFLOW _VERSION
TF_NE ED_
L oc
S dk
k al
IM IT
inst ance
ue st
hub ot
@@../. .@@
======== ========
STR ING
craf t
jeky ll
Develop ment
M _VERSION
_ ws
f 34
l xml
ph ere
xf z
BE AT
J PEG
_ DB
g log
APP LICATION
mi gration
VI SION
nano server
SB T_VERSION
TERR AFORM
m ot
p sy
as per
ph o
nginx _
sc l_
REF RESH
HUB BLE
cod ing
st ate
CE SS
ORACLE _HOME
MARIAD B_
AIR FLOW
re sh
con an
ac l
bz r
23 d
v2 ray
CGO_ ENABLED
d an
BUILD _VERSION
cent ral
lab dir
EXAMPLE S
X E
g rid
v 5
ap d
ap er
open suse
ger rit
coll ab
z eppelin
cf 2
ms g
G U
V T
_ 5
ATCH ER
_F OLDER
df s
ret urn
OPENCV _VERSION
DEPEND EN
, @@
- *.
d it
l ags
p f
ti c
vs witch
libldap 2
libexpat 1
I B
s entry
md 5
Lin es
bas elayout
ZO O
J I
P LUG
lib net
tp l
ss mtp
tutor ial
6 e
X 11
ip a
07 4
native Lines
6 83
P UP
m ine
AS _
es is
SECCOMP _VERSION
OR _
st age
tor y
ret ry
Pip file
7 d
i ot
SY S
os x
DOTNET _USE_
sk learn
deploy ment
POLLING _FILE_W
DOTNET_USE_ POLLING_FILE_W
DOTNET_USE_POLLING_FILE_W ATCHER
1 c5
I LE
L INE
12 3
P C_
P ath
S y
f ri
re v
ad dr
fb f
Pack ages
WORDPRES S_
I X
J U
a ur
p an
server s
_P L
scl_ enable
9 00
M IN
c 86
p df
cli ck
x2 64
MA X
H el
ar go
10 24
complet e
1 97
8 77
9 f
G AL
S _VER
_ api
lib google
re port
di al
ri s
au tom
char ts
N VM
g b
i fe
VER T
B _VERSION
I RON
IN FLU
re commends
af da
cf 7
NET WORK
bazel build
intel 64
artifac t
faker oot
7 cd
t able
pg 2
54 f
_CLI ENT
psy co
h ig
me l
load er
ssh _config
bit bucket
her ok
# @@
b 6b
d on
ch ron
http redir
ent o
hel l
Mag ick
7 a6
E 36
l and
86 24
em bed
min d
known _hosts
SPH IN
8 cd
9 FF
[ ^
b am
f la
s ent
u k
z y
SI G
lib usb
rc 1
19 2
cpan min
2 a2
CK _
PHP _F
93 C4
OS X
Ma x
Ad min
f watchdog
l one
t as
LIT E
CH ANGE
imag ick
ED_ AT
JBO SS
l df
LE TE
fre sh
.* \)
health check
c ri
q q
open vswitch
ag ing
2b 8
75 BD
lip se
peri mental
3 a2
6 74
ra _
fed or
rhel 7
9 1a
I S_
w arn
ro bot
mo unt
log _
BA NA
270 17
psyco pg2
j ud
KE E
con ver
5 B
N _
_ setup
06 37
bitcoin d
az ul
IRON MENT
a ut
lib gc
32 9
56 73
fb 74
uni fi
b 8
ST I_
ma c
bo w
BASE _DIR
94 84
Use PAM
c86 88
T o
_ entrypoint
_ CHECK
_ cli
_ DB_
co w
fi rst
NPM _CONFIG
web socket
22 e4
clo ak
den tial
ryp to
libti ff5
ino tify
REFRESH ED_AT
4 09
T ype
f 3f
ad apt
ss on
jdk _
C2 3EFE
0D 54
010 286
23 C23EFE
ps misc
FE 93C4
wr ite
EXTRA _
PROJECT _DIR
832 75BD
bab el
CFF FE
5673 0D54
010286 83275BD
23C23EFE FE93C4
56730D54 01028683275BD
23C23EFEFE93C4 CFFFE
56730D5401028683275BD 23C23EFEFE93C4CFFFE
0 a
6 aa
V i
b ad
GO 111
CACHE _
ha xe
for k
9d 1a
PYTHON_ PIP_VERSION
13a 85
" -
b ian
z h
de 10
or er
dev tools
cf b7
ga zebo
LINU X_
C 0
F 9
F LINK
K it
_ client
ur m
so lu
te ch
libp ango
37 6b
cloud unit
tensorflow _
cc 9d
sa ve
7c 33
tra vis
M em
a ch
h an
et s
ec lipse
CMAKE _VER
6d 65
CUDNN _VERSION
PHP_F PM
g lot
x rdp
25 c5
the me
dis cover
87 4
50 af
62 af
spot light
GO111 MODULE
i rc
p on
ar r
sh op
ub le
25 df
9a 3fa
5a 23
gl ass
B 4
G ro
b ol
c ep
e a8e
key cloak
req ui
28 92
VI SIBLE
libj av
ob ot
0c 13
286 c
f6 2e
pec l
Di rect
_PL ATFORM
Z K
c ube
} |
db 67
13 37
us age
init ctl
cs 11
libs m
gro ff
75 b2
58 d8
App lication
7a eb
914 9
" $(
m is
de 62af
lib un
64 ca7
ac 9d1a
ca 50af
ed 286
80 bc
af afc
eb de62af
www root
09 47e
cr ip
cf 376b
22 983
22 64ca7
201 c1a
e4 0637
a4 c8688
b5 2892
add 75b2
cb 286
60 cc9d
9d 80bc
0b d80
d7 e40637
5a 984
pil low
81 cf2
d6 1e4
447 ac9d1a
1dc 81e
3e 201c1a
832 3e201c1a
912 033
d80 de10
ebc 206
267 fbf
ad7 e8
3ec 8323e201c1a
398 ebde62af
a1 cf7
fbe bbe
d164 2264ca7
905 d61e4
216 5a23
025 8624
e1b 91a
7ba 25df
b17 65c
88c 0c13
c66 cb286
1c5 9484
877 0947e
afda 9149
7a6 22983
8cd 9d80bc
2a2 ed286
3a2 f62e
fb74 d80de10
22e4 a4c8688
cfb7 88c0c13
7c33 fb74d80de10
6d65 fbebbe
25c5 cf376b
9a3fa 2a2ed286
ea8e 398ebde62af
286c 267fbf
db67 ad7e8
58d8 d1642264ca7
7aeb 3a2f62e
ca50af 447ac9d1a
afafc 0bd80
b52892 db67ad7e8
add75b2 905d61e4
60cc9d 81cf2
d7e40637 b1765c
5a984 c66cb286
1dc81e 5a984c66cb286
912033 ea8e398ebde62af
3ec8323e201c1a a1cf7
2165a23 0258624
e1b91a 3ec8323e201c1aa1cf7
7ba25df 58d8d1642264ca7
1c59484 912033ea8e398ebde62af
8770947e 1dc81e5a984c66cb286
afda9149 add75b2905d61e4
7a622983 25c5cf376b
22e4a4c8688 e1b91a3ec8323e201c1aa1cf7
cfb788c0c13 afda9149add75b2905d61e4
7c33fb74d80de10 6d65fbebbe
9a3fa2a2ed286 60cc9d81cf2
286c267fbf 7c33fb74d80de106d65fbebbe
7aeb3a2f62e 2165a230258624
ca50af447ac9d1a 7a
afafc0bd80 7a62298325c5cf376b
d7e40637b1765c 286c267fbf7c33fb74d80de106d65fbebbe
7ba25df58d8d1642264ca7 ca50af447ac9d1a7a
1c59484912033ea8e398ebde62af 22e4a4c8688e1b91a3ec8323e201c1aa1cf7
8770947e1dc81e5a984c66cb286 afafc0bd807a62298325c5cf376b
cfb788c0c13afda9149add75b2905d61e4 9a3fa2a2ed28660cc9d81cf2
7aeb3a2f62e2165a230258624 7ba25df58d8d1642264ca7ca50af447ac9d1a7a
d7e40637b1765c286c267fbf7c33fb74d80de106d65fbebbe b52892db67ad7e8
8770947e1dc81e5a984c66cb286afafc0bd807a62298325c5cf376b 8cd9d80bc
cfb788c0c13afda9149add75b2905d61e49a3fa2a2ed28660cc9d81cf2 ebc206
3 12
F alse
o le
UN TRUSTED
IN VERT
lib d
op ent
inst ant
ho o
83 e4
pi e
ation s
ori g
dy n
pl orer
BACK END
ile d
Po wer
libti ff
hot spot
PKG_CONFIG _PATH
ldf lags
4 c
L VM
T h
sc en
C loud
V A_
libp ri
PRO CESS
sw ap
TIME _
W ARN
f dk
r ocket
ab s
get conf
dat as
python3 6
libf x
libj fx
cre at
SM TP
jfx rt
NB _UID
STI_ SCRIPTS_PATH
@@ *
lib deco
13 cb
d_ party
sm all
MON GO_
libgl ass
pages peed
libxrender 1
ra_ sse
libjav afx
libpri sm_
libfx plugins
libdeco ra_sse
1 C
n ash
n ix
z x
=" /
9 D
n f
er o
13 3
oracle linux
cre dential
car to
b7 0
B in
mi me
bc 95
KI BANA
power pc
upload s
herok u
2 D
A CC
g luster
w so
} :
de 5
ip h
ev al
A OM
a ve
SC ID
dev _
str uc
man ife
EM AIL
03 d8
serv ing
bash_ completion
8 00
V NC
ff 09
tomcat 7
cs v
TOOL S
4e ae
pu sh
e6 c8
MIS SION
IN K
de a
lib qt5
77 49
34 83
stor y
daemon ize
lsb _release
@@\ --
CARG O_
INFLU X
2 76
_ filter
j m
s ing
AL _VERSION
NA T
py yaml
12 d7
pip 3
55 2e
33 87
2b 56
a9 a2
2cd 7
OR S_
bu zz
93 5cd
HE VC
collect d
component s
lamb da
7cd 8
F B
S hell
m 1
m eta
DE LETE
node mon
ec 83e4
se q
14 4eae
65 eb
000 be
09 304
78 f
a4 912
60 ebc
free desktop
rasp bian
c3 09304
9cf 60ebc
JET TY
308 ec83e4
189 a4912
f34 935cd
683 c309304
f3f 308ec83e4
ff09 f34935cd
552e 7cd8
144eae 9cf60ebc
189a4912 f3f308ec83e4
683c309304 144eae9cf60ebc
ff09f34935cd 189a4912f3f308ec83e4
683c309304144eae9cf60ebc 552e7cd8
ff09f34935cd189a4912f3f308ec83e4 683c309304144eae9cf60ebc552e7cd8
C NT
P ort
_ port
a o
77 3483
df 7749
83 a9a2
3c 54f
fb 2cd7
f8 13a85
DOCKER_ PY
e8 1785
mag ic
mode l_
distribu tions
1c 2e5
0e 3387
d3 b6b
e25 12d7
que ue
3c1 13cb
8b 000be
f37 856
bee 03d8
d66 df7749
libxext 6
918 2b56
97b f813a85
23d 83a9a2
674 3c54f
6aa 2b8
b70 23d83a9a2
e6c8 e2512d7
65eb bee03d8
773483 1c2e5
e81785 f37856
0e3387 3c113cb
d3b6b 6aa2b8
8b000be e6c8e2512d7
d66df7749 e81785f37856
9182b56 b7023d83a9a2
97bf813a85 65ebbee03d8
6743c54f 0e33873c113cb
7734831c2e5 d3b6b6aa2b8
8b000bee6c8e2512d7 9182b56b7023d83a9a2
d66df7749e81785f37856 7734831c2e5d3b6b6aa2b8
97bf813a8565ebbee03d8 fb2cd7
6743c54f0e33873c113cb d66df7749e81785f378567734831c2e5d3b6b6aa2b8
8b000bee6c8e2512d79182b56b7023d83a9a2 97bf813a8565ebbee03d8fb2cd7
3 e4
b ri
p ocket
s asl
top df
H EM
J S_VERSION
S L
ng ine
57 6
inj a2
rmi registry
wkhtml topdf
DOCKER_PY _COMMIT
6 84
M _
b log
j a
UB LIC
setup_ 6
val ue
CI_ BUILD_
cour se
Mem ory
> /
Y ASM
at k
ip e
su ccess
ssh _host
07 9
trans mission
dn f
names erv
nash orn
J IT
\ ]
34 C
55 5
ee af
helper s
AUTH ENTI
Image Magick
glass fish
1 15
O V
_ bin
VARI ANT
conf luent
nat s
pk cs11
R _
S ign
l x
GE S
li g
pg data
log ger
test er
AUTO MAKE
HTTP D_
error _log
CROSS_ ROOT
) )
c 2
n y
LI BAS
BUILD_ SHARED
ju re
SUPER USER
addon s
2 g
K IT
n x
{ {
08 4
scrip ten
ob li
20180 6
BOOT STR
orient db
JI RA
L ite
f ess
g t
j p
m un
GO ARCH
GAL A
libun win
2 F5
4 56
5 20
L S_
g ar
RE TH
er n
CONFIG _
C_ REPO
md 2man
reque st
vl ad
TRANS MISSION
t nameserv
or bd
un pack200
server tool
LIB RARY_PATH
multi arch
policy tool
LIST EN
rmi d
ke l
ansible _
miniconda 3
tas ks
obli que
RETH INK
e os
l vlad
lib proj
el p
pro m
pe er
der labs
A4 8
fro lvlad
Pro gram
gli derlabs
NEX US_
osx cross
H IVE
K O
O OL
X X_
z k
linux brew
UP LOAD
common s
tt l
BOOTSTR AP
3 b
sp ar
cl one
NGIN X
libssh 2
NVM _DIR
_ INDEX
fa iled
55 7
/ :/
x u
AP RO
re e
tar ball
po d
em scripten
pipe fail
process or
ALLOW_ SUPERUSER
m ips
s pool
sh ow
open cl
RUB Y_
_h ba
instant client
ubuntu 14
LU A_
, /
_ SUFFIX
b lu
j js
go Rel
MP I
clo jure
over ri
_N PROCESS
dar win
rap id
_NPROCESS ORS_
C C_
_ ST
co co
at ive
tr af
PH PM
CUDA _VERSION
libnss 3
C 87
CO R
lib ogg
th em
GIT _COMMIT
BO OL
tool kit
FD K_
20180 8
http_ proxy
Build ing
CF G
WEB_PHP_ SOCKET
Pass word
libsm 6
lig httpd
g uest
z end
ON LN
CROSS_ TRIPLE
bat s
WAR E
_NPROCESSORS_ ONLN
r 1
ang ular
n path
ap roject
UT ION
open blas
ph alcon
25 3
vali date
_PLUG IN_
PUP PET
b 13
un dation
16 8
per sist
catkin _ws
_NUM BER
FDK_ AA
R es
T ool
e 3
h s
n set
p d
p ango
ub i
ruby gems
REPLACE _USERNAME
incub ator
RETHINK DB_
l en
al t
13 1
fa ke
BUILD_ PACKAGES
Lo ad
ARANGO_PACKAGE _URL
bow ti
f 33
REP ORT
20 14
RAILS_ ENV
, -
8 d
G A
Z K_
er a
oc to
em an
boost _1_
zabbix _
:\/ \/
M on
_ minimal
r ing
PER L
ali s
clean up
lat form
_SHA 1
AGENT _VERSION
7 50
V 8
z a
IM PORT
NAMES PACE
wi fi
Install er
thir d_party
send mail
libxt st
c group
w alk
SO FT
EL IX
ak u
kafka _
RABBITMQ _
mot d
BUILD_SHARED _LIBS
ELIX IR
4 00
5 10
f ont
g ri
AR O
NO TAR
it s
lo go
ff tw
RA M
]* \.
buff er
ensu re
u da
SERVER _
APP _PATH
db _
mod security
tor n
a4 6
ck an
visual vm
mss ql
Gro up
scen ar
_ all
f mt
lib geoip
le ction
python _
install_ packages
PRINT 0
KUB ECT
Star t
M 2
m ni
@@ =
re act
ser f
libg flags
system s
SS L_
_ARCH IVE
play book
mission control
j ira
lib theora
ch annel
@@./ .
mo re
xml rpc
auto re
eq ui
hig h
fedor aproject
( "
H eap
V AR
u y
in di
CONT IN
cpanmin us
KEE PER
CARGO_ TARGET
at al
pg _hba
cp io
LU ARO
AUTHENTI CAT
torn ado
_ root
st udio
or c
git 2
OT P
sp ell
repo 1
pl an
sv c
Cont ainer
AS TER
CO UNT
1d 3
inf ra
ANN EL
ZOO KEEPER
JBOSS _HOME
/ \/
O ff
_ local_
d one
f PIC
m ad
o se
16 32
55 4
KAFK A_HOME
Un limited
|| ||
_filter _module
N ON
N ote
P il
c 06
g g
r ar
op kg
db a
99 4
_linux_ hotspot
zero mq
HT ML
CONTIN UE
F in
_ DATA
h ip
n op
:// ${
root _password
44 F
sw oo
RETHINKDB_ PACKAGE_VERSION
_ pre
r ocks
GPG KEY
or der
CU ST
snap craft
GRADLE _VERSION
2 64
O C
U _VERSION
n um
t wi
v pp
pro f
lu 1
da y
3c 7
ZB X_VERSION
> &
E vent
G AT
e 0c
f 1
j inja2
o mi
lib virt
it h
DE B
17 62
28 48
cp 27
ig nore
DOWNLOAD _SHA256
hand ler
ei gen
signing _key
Power Shell
_ LINUX_
f 76
INSTALL _PATH
CD 4E
ac ker
80 E84
C2 BE
F5 39
06 2848
EB 3C
96 B3
005 C
AB 005C
ipy nb
779 C87
A1 AB005C
C6 D7
E6 80E84
778 F539
4ED 778F539
074 96B3
E36 34C
A48 C2BE
1632 CD4E
44F 07496B3
062848 A1AB005C
EB3C 1762
779C87 C6D7
E680E84 1632CD4E
4ED778F539 E3634C
A48C2BE E680E841632CD4E
44F07496B3 EB3C1762
779C87C6D7 062848A1AB005C
4ED778F539E3634C 779C87C6D7062848A1AB005C
A48C2BEE680E841632CD4E 44F07496B3EB3C1762
D JAN
c ry
k b
ar es
str ate
fu zz
own cloud
f ony
al e
SH _
el 6
UB UNT
NU LL
ist io
FLU ENT
TERRAFORM _VERSION
B AR
e 2e
n z
AS _VERSION
ro l
ret ty
virtu al
leg acy
crip ts
4 D
C _VER
_ 6
_ core
AL I
in fr
en ge
ro les
un ter
CMAKE _VERSION
libg lu1
84 a
FO UND
ACCE SS_
struc ture
7 1
X VID
s ass
DI STRI
go go
ol an
config _
fe ed
c6 d
Defaul t
RUBY _MAJOR
NOT FOUND
mdns4 _minimal
requi retty
/ (
_ service
j der
x vid
at ing
mp ty
CONFIGURE _ARGS
main utils
DRIVER _VERSION
87 6
rpm build
TOMCAT _TGZ
nal y
NU XE
bsd mainutils
armv6 l
prep are
swoo le
B Y
G en
h um
k ali
ic t
28 56
ext ldflags
100 00
jav u
# \
O RE
_ APK
de javu
ab ox
80 83
80 79
sym fony
POSTGI S_VERSION
solu tions
b 0
e 9b
_M Y
alle d
linux_ signing_key
2 af
_ 12
` @@
o sr
p 4
sh ib
ip fs
GIT _
id oc
98 1
PL ONE
vc ell
wall et
libt bb
traf fic
jder obot
F 1
F TP
H APRO
L INT
_ GID
m en
q a
r ocker
lib json
tr ack
jre 8
libv px
libav codec
monitor ing
vide olan
_DOWNLOAD _SHA256
liber ty
REDIS _VERSION
E ngine
H DF
a hf
j meter
p cp
s co
google source
db 2c
DB C
1d 1
stream _
WORK _DIR
libav format
Host Key
equi vs
Pil low
I ES
P P
z u
SCRIPT S
or ts
ac me
libg db
vim rc
20180 9
arm32 v7
f w
h r
| ^
UN AUTHENTICAT
AP _
un nel
STU DI
asse mb
UNAUTHENTICAT ED
net base
puppet labs
G opkg
P S_VERSION
e er
r ain
UN IT
co der
fi er
py g
25 cc
run server
LIB VID
qt base
JAVA_VERSION _BUILD
MAVEN _HOME
D L
e vm
ar gs
sh i
ti o
ul ator
dep end
ne ko
rout er
6 c
R C_
https _proxy
83 d6
fe 04
sl urm
SOLR _VERSION
) /
/ -
i ki
CH ANNEL
au dit
22 9b
30 dd
libj emalloc
ure ka
KUB E
lib32 z
' ]@@
F r
_ conf
b 07
DI NG
co g
ip er
ri x
78 bc
lab el
a7 94
gu ac
cri u
. \
N one
c ud
m w
z zer
li o
li tt
str ace
06 76
SQ L_
_ 3
s mo
ADD RESS
re map
urc es
init y
name d
kube flow
FFMPEG _VERSION
CF 8
ghost script
hoo ks
NOTAR Y_VERSION
R S
j ail
s no
x h
ME TE
at ed_
ad 04
ere po
88 8
libg test
d7 c6
/* \
Te sts
COMPOSER_ ALLOW_SUPERUSER
chron o
t 4
z ation
lib leveldb
sh ip
un stable
open bsd
00 ae
14 2c
java 7
66 c
ba 7c
0f 09
hubble _build
click house
Direct ory
PHPM Y
cry st
C ython
ar ker
80 5e
04 83
24 a0
_P ER
39 32
39 e8
94 2e
ae 34
a5 b4
qt 4
1f 05
8u 212
_FL AG
bench mark
cle ar
M AR
_ env
g an
ap y
64 1b
11 8
04 40
cf fi
22 72b
pri vi
GLIBC_ BIN
DAPPER_ SOURCE
memory_ limit
SOFT WARE
strate gy
IF ACT
lib ass
loc ks
ac 214
ep i
ce 96
fb d0
HTTP S_
dd 2a
NE W
cb d7
HTTP_ G
GLIBC _URL
ART IFACT
3 eeaf
A 6
h pi
ar mel
lib blas
10 ad7
77 bb0f
99 398
17 b6
du ct
90 ae34
66 812
600 a86
777 318
dc 645
33 d7c6
386 d66
201 ab8
94 567
78 237
75 db2c
f8 267
9a 135
d7 00ae
2d 84a
52 ad04
aa 83d6
e6 24a0
3a 255
a7 e20
ea 253
aac 8079
aac 17b6
3ec e0c
5b 3932
6a 874
2f5 fbd0
b3c 3eeaf
jud ge
312 a794
bc95 dd2a
dea 2272b
78f 600a86
3e4 52ad04
079 ba7c
456 386d66
557 a5b4
f33 25cc
a46 39e8
1d3 ce96
c06 78bc
c6d dea2272b
2856 10ad7
fe04 805e
229b 557a5b4
30dd 5b3932
0676 a4639e8
142c 77bb0f
0f09 c6ddea2272b
0483 99398
942e fe04805e
1f05 f3325cc
641b 3ece0c
ac214 3a255
90ae34 aac8079
66812 75db2c
777318 bc95dd2a
dc645 cbd7
33d7c6 ea253
201ab8 d700ae
94567 c4
78237 456386d66
f8267 1f05f3325cc
9a135 285610ad7
2d84a 777318bc95dd2a
aa83d6 e624a0
a7e20 641b3ece0c
aac17b6 de5
6a874 079ba7c
2f5fbd0 aa83d6e624a0
b3c3eeaf 3e452ad04
312a794 2f5fbd0aa83d6e624a0
78f600a86 90ae34aac8079
c0678bc 942efe04805e
229b557a5b4 f82671f05f3325cc
30dd5b3932 6a874079ba7c
0676a4639e8 94567c4
142c77bb0f 0f09c6ddea2272b
048399398 dc645cbd7
ac2143a255 30dd5b39326a874079ba7c
6681275db2c b3c3eeaf3e452ad04
33d7c6ea253 1d3ce96
201ab8d700ae a7e20641b3ece0c
78237456386d66 ac2143a25530dd5b39326a874079ba7c
9a135285610ad7 1d1
2d84a777318bc95dd2a 201ab8d700aea7e20641b3ece0c
312a7942f5fbd0aa83d6e624a0 6681275db2cb3c3eeaf3e452ad04
78f600a8690ae34aac8079 142c77bb0f0f09c6ddea2272b
c0678bc942efe04805e 229b557a5b4f82671f05f3325cc
78237456386d66ac2143a25530dd5b39326a874079ba7c 0676a4639e894567c4
2d84a777318bc95dd2a201ab8d700aea7e20641b3ece0c 048399398dc645cbd7
312a7942f5fbd0aa83d6e624a06681275db2cb3c3eeaf3e452ad04 aac17b6de5
78f600a8690ae34aac8079142c77bb0f0f09c6ddea2272b 9a135285610ad71d1
c0678bc942efe04805e229b557a5b4f82671f05f3325cc 33d7c6ea2531d3ce96
; \
A p
A na
A IO_
L T
N C_
_ IN
_ address
PG P
dk afka
vi vid
ex plorer
libc uda
fre eb
C4 CF8
Ho me
Net Core
O DO
h h
h q
q c
t it
lib selinux
un limited
gr in
GLIBC_ APK
unix odbc
Git Version
BOOST _VERSION
chec ker
indi go
GLIBC_BIN _APK
J M
lib sw
GIT VERSION
sp a
PRO J
asci idoc
fla ke
privi leg
8 15
C GI
i ss
j emalloc
x fsprogs
in no
or bit
99 65
tensor board
**** ****
them es
B ur
D _HOME
P latform
e 34
li t
no me
66 6
RA Y
cp ug
dock remap
cms 2
uy 83
cpug uy83
I S
K ERN
h n
le y
ap m
GO OS
ad er
COND A_
CL UST
min io
micro service
A naly
d ark
} ${
co ffe
20 5
la in
acc el
sol ver
Arch ive
mag ento
lay er
vent ory
LOCK FILE
ensure pip
E E
_ cache
d 1f
en e
CA PA
12 34
he ap
jupyter hub
lib32z 1
0 B
g oc
@@ **
RO S_
ad d_
run ning
SERVER _PORT
13 85
_RE F
ct ype
BI LIT
19 B
DEL AY
ob ject
/^ \(
fd 6
limit s
F l
W ILD
i k
n tp
SER VE
lu gin
PROTO BU
909 0
J SON
v sts
lib iconv
lib aio
an k
ES _VERSION
lo kia
NODE _PATH
sp l
rpm s
nu c
sub st
jo lokia
LIBERICA _ROOT
function s
pac ker
br ain
libgd al
C 3
C lient
V MO
_ x86_64
w 5
NA MI
po se
_RE GISTRY
AA 6
pre sto
MA X_
Me dia
_ output
f 7
f buzz
s in
ENV _ROOT
ir d
PHP_ CFLAGS
APACHE _LOG_DIR
CER BER
har fbuzz
VA UL
FABRIC_ ROOT
jmx remote
HBASE _VERSION
SIG NAT
Note book
T OP
e gov
e ureka
p tions
es p
key stone
TT Y
default _
wi resh
MYSQL_ USER
:\ \
tx 1
dynamodb _local_
GITVERSION _VERSION
VMO ptions
wiresh ark
1 x
M B
x iph
go test
ab c
su ite
ran dom
setup_ 10
SIGNAT URE
B 5
C ity
G I_
M M
_ admin
ME SO
USER _UID
am r
sy nt
xvf z
hot swap
TMP DIR
tele graf
spe ed
" )
2 181
8 443
A mer
_ APP
h awk
ME TER
re 2c
RO CKET
loc ation
opt imi
12 1
arti san
vs ftpd
_SC HEM
gob ject
msg pack
8 a
A z
D UM
d ra
et er
UP STREAM
up x
ul ti
16 1
_P RE
port al
pl er
kernel spec
fro zen
ban an
NASM _VER
embed ded
T OR
Z A
_ ENABLED
p b
li fy
en ger
ad m
str ator
_RE AL
GC C_
Do uble
drop box
P REST
d ce
n 510
q p
u ti
AL CON
go mp
build root
so li
BUILD_ FROM
black board
artik 710
neu tron
nanop c
imx8 m
kitra 710
Hel lo
discover y
flake 8
orbit ty
A nd
D com
Q EM
R DK
d hub
x g
or ang
ac ts
ti v
LI BO
600 6
mon it
code _
1000 1
libl mdb
_L IMIT
CONTAINER_ SCRIPTS_PATH
raspberrypi 3
_ DATABASE
n r
lib elf
pro gress
CMAKE _C
ge st
28 16
_MA X
DAT A_
ae gir
MA JOR
PROJECT _VERSION
_LOG LEVEL
geoip _module
red mine
face book
det ect
wkhtml tox
NUM BER
dial og
orang epi
_ wrapper
y our
st an
lib ri
ing ress
fl at
De bug
MIS P
kal di
migration s
Notebook App
G H
H D
T CP
Y elp
l fs
m g
t _
de nc
SE L
INST ALLE
th ing
key ring
php 56
str a
]* \)
B9 E
chall enge
Loc al
SCID B_
GAT LING
A n
F M
G ate
_ v
p ur
ST ASH
rest ore
fast en
continuum io
CAPA BILIT
denc y
. ./
D G
S 6
j wild
m ate
p 7
w id
IN I_
st ed
py c
ul ts
armv7 ahf
74 74
JAVA_ BUILD
gor oot
hum ming
accel er
jwild er
P roxy
q 2g
s mb
to re
13 99
ava hi
fre et
sys v
DEPENDEN CI
Double Bracket
LIBO P
D ep
e 0
p ulse
AS SET
PA GES
lo it
CD 2816
ci al
0D 9FF
755 9965
%% [
3A 7559965
parallel la
vali dat
hello world
libreadline 6
E0 CD2816
WW W
2F5 981
privileg ed
AA6 E0CD2816
B9E 2F5981
1399 3A7559965
0D9FF 13993A7559965
AA6E0CD2816 0D9FF13993A7559965
B9E2F5981 AA6E0CD28160D9FF13993A7559965
B9E2F5981AA6E0CD28160D9FF13993A7559965 3C
f ra
n pe
r l
lib git2
ri ft
s3 cmd
ion cube
ruby 2
HOST NAME
sha 1
libsw scale
xg boost
3 14
D C
U WS
t ab
ro bo
ti mes
open jpeg
tu m
SY SC
ter min
_P RI
33 s
ORI ENT
co libri
lib nccl
AN SIBLE
sc gi
packag ing
fe 4
ari a
beagle board
corp us
pac man
imx6 dl
Lib r
xu 4
walk ing
humming board
3 24
= .*/
c con
f inc
q dm
w al
x 500
x dg
ap alis
ti le
am 57
pm 6x
au fs
plu s2
cp 36
ros _
sm tp
_PRO XY
imx 7
artik 10
artik5 30
artik5 33s
imx6 q
imx6 ul
nanop i
kitra 520
nitrogen6x q2g
Man ager
adapt er
banan api
fasten al
freet ds
finc m3
am57 1x
F RI
_ strategy
st a
oc serv
log file
res pon
ce 4
fly way
Mini conda
NC CL
sky walking
BUNDLE_ BIN
libgc rypt
j ruby
libu dev
MI ND
libncurses w5
GST _PLUGIN_
QUE ST
vie ws
PLUG IN
Fin al
Ap ache
Amer ica
CAPABILIT IES
S LA
a h
k an
z ap
me d
server _
ING _VERSION
extr actor
ubuntu16 04
entic ation
CUST OM
8 A
z nc
GO BIN
build ing
LIBERICA _VERSION
process ing
ush i
9 A
_ STATIC_
_ openj9
b ak
p dns
in el
li ke
al ex
ur fer
open containers
ri e
arm64 v8
gi f
PHP_ SHA256
KER AS_VERSION
coffe e
Gate way
0 _amd64
N EXT
S ushi
ap c
no x
ity db
libx ss
COMPOSER _HOME
B 0
d ub
th rift
ph aser
libr dkafka
creat erepo
DEPENDENCI ES
j ust
m oc
13 0
BI DI
_PRO FILE
]* }/
cy rus
pin point
buil t
THE OR
BITCOIN _VERSION
NPM_CONFIG _LOGLEVEL
synt ax
- *@@
I Z
I SO
d 2
e 07
on d
IP _MODULE
fi x_
ol lo
15 1
ter m
RT MP
libjpeg 8
conn ection
] ,
t qdm
w x
ST ORM
re du
ht s
dat ad
ust c
date util
mat ter
NAG IO
DISTRI B
A sp
O K
p d8
IF I_
PIP _
GIT LAB
tr user
pp truser
30 3
exec utor
nt Sushi
provision er
lts c
webu pd8
Bur ntSushi
Q T_
_ ag
ap ollo
GN U
CONFIG _DIR
di git
24 2
ge vent
id le
37 D
nu get
ath on
bash_ profile
Al low
TOOLS_ COMMIT
freeb sd
al sa
en se
am ole
fo undation
sc cache
BACK UP
sci db
gra al
guac amole
validat or
8 d4
_ GIT
_ extension
a ar
e co
u res
RE ACT
al an
re c
cur sor
jar s
mysql nd
-------- --------
numa ctl
frees urfer
C argo
b ell
c ut
z 3
AP H
and _
gc loud
_M ON
cf ssl
fix es
kernel s
define d
INCLUDE _DIR
_linux_hotspot _
E W
F OLDER
P CRE
v n
w ho
af f
06 3
wa ve
pdo_ sqlite
hi redis
REGISTRY_COMMIT _SCHEM
jm x_
REGISTRY_COMMIT_SCHEM A1
. ${
_ unknown
e ch
k v
k ent
r 3
py dot
ver sal
el d
file size
docker d
CP U
ed x_
driver s
DOC S
was m
22 2
pi ke
HTTP _PORT
DOCKER_ TAG
stand ard
hubble stack
gstreamer 1
512 m
_FLAG S_
p7 zip
FRI BIDI
F ON
W I
f older
o h
x cb
cr aw
mod ern
VC S_URL
dp arty
CLO U
"$@ "@@
BITCOIN _URL
libsdl 2
Az ure
( )
O 2
S PR
en coding
GO _URL
em sdk
ge sts
HOST _ARCH
mx e
gy m
libcudnn 7
SWIF T
forward er
Sign Up
Libr ary
6 12
I dle
S tore
i zer
t bb
PY CAFFE_ROOT
lib nl
il li
10 4
bo se
se m
res ults
stat sd
sl apd
ER_ PORT
SA VE
hi story
BOO K
Li mit
sent inel
spa wn
RDK AFK
edx_ ansible
' )@@
LIB S
proto col
install_ path
De mo
upload _max_
GRA AL
aku do
upload_max_ filesize
N IFI
a _
b are
d av
j ames
PT _
VER TI
tr c
12 0
str ings
T_ C_
a2 a
Pro ject
network address
roc m
param s
Str ict
DLD T_C_
3 84
C ent
W A
_ CACHE
f lo
at tr
AN CE
si ght
da ily
27 e
cl as
fix tures
native Build
* =\
5 09
F 6
M AT
O B
_ CONF
_ COMPILER
c ed
k ong
l 2
r tc
y ou
to _
libc rypto
pass enger
depen dency
BITCOIN_ SHA256
Check ing
thir dparty
assemb ly
smo ke
cryst al
PGP _KEY
E CA
K HTML
t ip
in fer
:// /
no journal
os m
nc bi
word s
ps util
mesos phere
ORACLE _BASE
arg on
pix buf
ssh_host _
P AS
S ha
t on
eg g
geo server
JU LI
zend _extension
litt ler
DLDT_C_ API_
C PATH
C B_
M et
P ID
_ worker
_ errors
_ VARIANT
g mm
@@ (
LE CT
BO X_
user _
ROOT _DIR
par ity
Con n
HADOOP_ CONF_DIR
octo ber
ACCESS_ KEY
datad ir
R profile
S cripts
W MS
b wa
~ /.
li sp
key tool
libx rand
ort al
nl x
listen _address
_PACKAGE _FILENAME
LLVM _VERSION
C 7
J METER
W INE
Y AM
_ source
f lu
g ed
m sys
EN CO
contr acts
cor d
Do main
dashboard s
compile d
libgdb m
2 34
_ web
c as
e 9
n export
ER S
at ic
no va
el y
si gs
LIB _DIR
mus ic
sv n
0000 0000
_max_ size
webu i
mess age
LVM 2_VERSION
CFG _PATH
5 85
A NA
V _
b 04
p ell
s at
t ing
w t
di an
TR AV
2018 11
READ LINE
APACHE_RUN _USER
carto graph
_ag ain
* :
/ "
F ES
f n
t v
at ype
go on
am z
PH ALCON
09 a
C5 A
fs l
ber us
use _
MYSQL_ ROOT
wp low
buil dout
PUPPET _VERSION
sno wplow
gmm lib
T GZ
lib gomp
or d
SER V
ub er
get s
BUILD _HOME
No de
inter n
proj 4
eg l
TOMCAT _HOME
tun a
SPHIN X_
conver t
pyg ments
hh vm
ROCKET MQ
listen_address es
_ MODEL
k ri
o ba
p 2
lib arr
con course
ac count
open faas
av en
log ic
LOG STASH
env subst
ber t
beta 1
gl x
commit s
BUNDLE _PATH
CPP FLAGS
bowti e2
NULL ARY
' ${
1 86
M INI
SCRIPT ION
re search
ad opt
80 9
xt ension
us ed
24 3
sp am
sp ect
clo ser
HTTP _SSL_MODULE
prometheus _
Ex perimental
CARGO_TARGET _
B R
f ec
j ack
MEM CACHE
lib apr
up s
20 2
17 1
ROOT DIR
sn ort
PHP_ ASC_URL
check sum
feat ure
wso 2
libxss 1
ENCO DING
1 ubuntu
8 545
I CON
l ass
v host
en ix
go dep
int ro
12 4
pip _
the ia
PRO FILE
dic t
Geo Lite
fftw 3
Asp NetCore
GRAAL VM
) .*
V 6
k go
at er
ro k
sh ort
tmp files
th er
python 27
16 5
post _max_size
jupyter lab
\( [
SVT_ AV1
rocket mq
redu ce
nativeBuild Dir
H IP
S ITE
e fe
f loy
g nome
l cov
LE EP
al ter
lib m
go ld
ke d
all y
che my
read er
_MAJOR _VERSION
son atype
MYSQL_ DATABASE
grpc io
ALPINE _VERSION
azul systems
1 eb
C BS
P lone
S ec
S up
_ image
g ame
h one
go od
ic ing
gin kgo
mo st
aw iki
min er
shar p
arango d
e2 fsprogs
class ic
SECRET _KEY
medi awiki
lar avel
PU LL
PHP_FPM _
INSTALLE D
msys 64
B AN
E V
M ulti
f 1d
i am
BASH _ENV
in er
am qp
sc rypt
libc lang
39 3
fre em
cre ation
map nik
extr act
TOOL S_VERSION
VP X
hu a
NVIDI A
FABRIC_ CFG_PATH
alert manager
IB M
tutorial s
GATLING _VERSION
7 u
C RON
_ TYPE
z illa
ap b
ot on
pg admin
ff le
init iali
HOST S
SRC _PATH
soli d
Z UL
a er
d v
r q
s ingle
ER T
de li
al ab
re lay
QU BE
se ab
ing hua
ath er
disp atch
powerpc 64
scenar io
C S
D 8
g f
r tmp
DO N
ST OR
py doc
inst alled
ts inghua
lu ence
client _
CONNECT OR
INFO _FILE
SONAR QUBE
TOMCAT_ NATIVE
Auth entication
ROS_ DISTRO
2 db
U LL
v en
PACKAGE _SUFFIX
lin ker
un privileged
/. *
fl are
sys config
COMPOSE _VERSION
LIBER TY
KNOWAGE_ PACKAGE_SUFFIX
ARM OR
fic ate
APACHE_RUN _GROUP
My SQL
c ene
f p
n deb
o me
s il
w l
op y
ch a
ur i
web hook
for d
GO_ TOOLS_COMMIT
dh cp
mingw 64
_N ASM
Co de
RUST _
authentic ator
pho enix
Load Module
spl unk
S ug
s age
DI UM
st aging
GO OG
build deps
be 8
sy sr
AA AA
target s
httpd 24
fabric 8
sign al
fu ture
MEDI A_
bol eth
dce vm
kri sh
floy dhub
_ buffer
g is
k ip
CO RES
bu r
dev il
inter face
ls io
JENKIN S_VERSION
ARAN GO_VERSION
ARAN GO_URL
artifac tory
ARANGO_ SIGNATURE
OPENCAS T_
@@{{ @@
LINT _COMMIT
ARANGO_SIGNATURE _URL
A ME
l b
ad a
open source
se a
ex press
du ser
000 1
84 8
auth _
container pilot
influx data
MON GO_VERSION
GR APH
JAR _FILE
opencv_ contrib
shib boleth
SYSC ON
freem arker
0 99
> \
G F_
M ARY
P lugin
f fa
n im
no tify
19 3
bc 3
jenkins _home
OPEN HA
image dir
_ENV IRONMENT
GO_ LINT_COMMIT
nat ives
20190 2
_T MP
BUND L
max_ acceler
Un lock
GLIBC _PREFIX
SVT_ VP9
Download s
RPM S
Li sts
libpango 1
276 26
ated_ files
DISTRIB UTION
max_acceler ated_files
6 14
_ WORK
} ;
do libarr
ec loud
COND A_VERSION
alen dar
ssl _
em ulator
mit ch
55 8
JAVA_ JCE
libu uid
Ma ster
protoc 3
learn ing
POSTGRES _USER
SK IP
BIND IR
DOLI _
PRE SERVE
aut op
_REAL IP_MODULE
9 ed
M AP
r as
s kia
u v
AR _
lin ti
mp tion
ma ker
256 M
ex ports
au g
init _1
non root
ari a2
boost _
ANT _VERSION
map reduce
@@[ .
KAFK A
gop her
reg ex
STAR T
DJAN GO_
Experimental VMOptions
Unlock ExperimentalVMOptions
V IP
_ EXTRA
ADD ITION
SH ORT
file _
log y
ba i
graph ics
enable _cli
DISABLE _
WEB_DOCUMENT _ROOT
small files
HostKey Checking
Strict HostKeyChecking
creation ix
devil box
SYSCON F
B 7
e ar
e ad
e lec
w arm
} '
li s
SO DIUM
go og
GO VERSION
conf luence
os geo
BINARY _NAME
work flow
dd 8
stream s
bi di
UDE V
fu zzer
Use C
mqtt 3c
6 35
C AR
G RI
_ time
c m
e abi
en um
25 0
RA CK
VERSION _
DATA DIR
build_ deps
fac tor
') ;
CXX FLAGS
DR UP
CLIENT _
Vi sual
twi sted
+ \
c apt
SC AN
ti es
net go
bo sh
id p
beat s
Po licy
For Heap
rebar 3
resol v
Memory Limit
Group MemoryLimit
GitVersion _
webupd8 team
UseC GroupMemoryLimit
UseCGroupMemoryLimit ForHeap
/ %
G HOST
S PL
T INI_
c alendar
e 08
in ventory
de c
INSTALL _FILE
OP US_
web server
_SDK _REPO
pri v
unt il
fin der
ZUL U
* =.*
7 07
N u
i mo
k h
m ut
ar te
ver bose
JAVA_ OPTIONS
mb ed
contr ail
thread s
KUB E_
POSTGRES Q
libmagick core
BITNAMI_ IMAGE_VERSION
Wor ld
Sha 256
lsio base
/ {
I UM
_ sdk
c z
ER _S
AR RAY
lib gnutls
fi k
fi ed
DA Y
BACK GROUND
gu ard
CARG O_HOME
BITNAMI_ APP_NAME
AUTOMAKE _VER
J VM
_ db
lib calico
me cab
deb ez
dot deb
perl 5
Open BLAS
v4 l
mar athon
FRE E
consu mption
infr abox
amz n1
debez ium
M T
g ames
l on
v in
an na
as n1
tr acer
15 0
22 22
ae fik
WSO2_SERVER _HOME
boto 3
mni st
xvid core
F S_
N ew
p ull
~ /
TAR ANT
RUN TIME
ad c
_P ID
auto gen
tomcat 8
ANT _HOME
max mind
LOCAL E
VORBI S_
MP3LAME _VER
AIRFLOW _HOME
datas et
TOMCAT_TGZ _URL
I I
L VERS
N inja
\ &
c ub
fi rm
var i
tr aefik
lu cene
GROUP _ID
DN S
gr av
core fonts
libc up
graph y
inet utils
armv6 hf
dynamodb_local_ latest
adopt openjdk
Sug gests
/ ~
5 A5
F AL
O f
_ size
g m
i ko
j l
ar o
ed g
af ari
uni versal
eth er
US _HOME
ru le
KNOW AGE
_SHA 512
bon d
LDAP _
pop pler
YAM L
TOMCAT_NATIVE _LIBDIR
, ,
7 044
_ s
i su
k on
l la
m f
RUN _
PY ENV_ROOT
io us
ed ata
_P UBLIC
66 E
ne ur
pu ma
CMAKE_INSTALL _LIBDIR
fun c
HEL M_VERSION
DLD T
NEXUS_ DATA
Y AR
b 00
b 14
s ar
y ara
DO NT
PO W
he i
man y
dis k
ASS FI
cent er
BE E
bi oc
REST Y
_re port
x11 vnc
GL ASSFI
CLOUD _SDK_REPO
YASM _VER
eigen 3
Fl ask
TARANT OOL
D ASH
g 4
r doc
u tion
ND _
li ties
st unnel
EL _
NODE JS_VERSION
dot files
ng rok
libj asper
ALPINE_GLIBC_ PACKAGE_VERSION
cow rie
hts lib
5 08
D M
e 3d
f cd
s cons
PA RT
ma st
EC T_
pr ere
pat ter
BUILD_ USER
De ep
#### ####
WH ILE
aom _build
GALA XY_
isu con
3 001
D 3
_ n
_ agent
b reak
e po
h g
t ables
ch ol
tp roc
open _
BO T
PHP _MD5
bo un
78 b
ig a
glib 2
analy sis
pw sh
memory_ consumption
TRAV IS_
9 dc
A Z
Q u
_ SIZE
w q
st ro
ab ot
FA NA
port able
dc 3
BUILD_ ARCH
_S TAR
cloud flare
line _
60 d
ZO O_
ELASTICSEARCH _VERSION
GCC_ LIB
unprivileged user
POW ER
6 30
le Web
re start
FILE BEAT
13 7
auto start
gen esis
win 32
_MINOR _VERSION
gtk 3
catal og
base_ image
xsl tproc
CONSU L_VERSION
7 C
G CC
K IP
S e
j i
p age
IT _
ST AB
open core
ss i
el com
di gest
16 14
packag ecloud
PHP_ EXTRA_
map red
20190 32
crypto graphy
dn scrypt
WEB_PHP_ TIMEOUT
AS_ DOMAIN
ALI AS_DOMAIN
CERBER US_
krish na
PHP_EXTRA_ CONFIGURE_ARGS
( $
. /@@
4 04
8 18
V ENV
r akudo
PACKAGE _NAME
lib archive
UT IL
open v
pg _
sp acy
07 5
ZE PP
MYSQ L_VERSION
gem spec
DB_ HOST
GLIBC_ REPO
terraform _
GR PC_
lib32 stdc
EP TH
ETCD _VERSION
Or der
ACC C4CF8
M2 _HOME
ICON V
ZEPP EL
A IO
G ERR
I dentity
_ PACKAGES
_ LINK
p v
in dy
open d
ec s
ut down
command s
la goon
18 5
26 8
OPEN JPEG
TEMP LATE
F4 F
WEB_ ALIAS_DOMAIN
SP EC
GRA FANA
GD AL_VERSION
WEB_DOCUMENT _INDEX
LIBVID STAB
GITLAB _DIR
. "@@
V ARN
W P
d pi
f 17
r path
u al
an ap
https erver
NODE _
CL ANG
sp ac
vic e
22 6
libx pm
ir b
X_ ENV
backup s
ed_ strings
Config ure
DISTRO _NAME
_f req
CR AF
writ er
heap ster
MIND EPTH
intern ed_strings
SYSCONF DIR
VARN I
interned_strings _buffer
E ST
W L
e mpty
k vm
l ers
p ure
w ily
AS T_
lib magic
lib fftw3
SOURCE S_DIR
po six
ub y
ssl _module
15 5
sp at
_sh utdown
CRO SS
erm int
180 9
@@/^ #
credential s
WILD FL
B us
G ION
G ecko
S N
T K
W in
RE NT
po li
ver tx
app end
min ds
fb 24
add ition
ta oba
## #
Mo zilla
anap six
taoba o
9 57
9 E3
A BI
C UR
O F
U I
U CH
a 18
e dis
l m
r ip
st ep
re alp
IP V6
un rar
STRI CT
is m
pr et
In ter
imp orts
/? /
GOLANG _ARCH
SCAL A_HOME
_R PM
libxtst 6
HAPRO XY
FON T
/ '
S ENTRY
c rc
u go
al o
re alloc
git config
DE _VERSION
tu tum
eb 5
etcd ctl
event s
watch er
sav anna
!^ (\
oauth 2
PLATFORM S
savanna h
8 aa
F S_VERSION
N on
_ gateway
l up
m ble
p lex
r int
al chemy
re validate
on es
ab ase
php redis
13 94
DN S_
ing _
ust omi
gen ie
2c 8
fil er
jo co
_linux_ openj9
mu joco
nop realloc
CLOU D_
bare os
alter natives
6 05
D es
H and
M ess
T F_VERSION
j pg
y an
ARI ES
GIT _VERSION
python 34
ul ate
vi a
dat aso
EXPORT S
requirements _
df sg
bc c
cloud era
sync thing
ric ks
MQ TT
gener ated
simple json
RUBY GEM
eos io
gotest sum
edis on
D F4
H Y
_ se
i 2
j unit
o j
t ty
t we
u a
de pot
lib numa
APP _USER
16 6
sc ri
certi ficate
07 A
sdk _version
JAVA_ TGZ
MYSQL_ JAVA_
torch vision
INSTALL_ BINARY_NAME
CONSU L_
wid gets
FAL SE
0 _linux_amd64
1 bb
R ep
S afari
b ird
d lib
h w
opt s
do s2
MAKE FILE
so me
ama i
_RE QUEST
PHP_ ERROR
pri mer
App leWeb
CONTAINER _USER
gop kg
cudnn 5
OpenJDK 8
consu mer
goog let
dos2 unix
AppleWeb Kit
' *
c 68
i con
IT Y
lib va
lib lua5
ch y
UNKNOWN _LINUX_
el se
amazon linux
44 0
BASE IMAGE
ty po
runtime _
JAVA_PACKAGE _SHA256
token izer
VERTI CLE
realp ath
revalidate _freq
3 10
K VA
W K
j 2
x slt
in der
er r
co ok
256 m
config tx
ex im
13 8
os pike
_P CRE
libj an
bor on
ZA AR
googlet est
KVA ZAAR
$ /\
> <
R P
R STUDI
_ start
_ APP_
re load
re place
RO S
com press
ro ll
build kit
pkg conf
tr ap
download er
set _
qu ant
cloud driver
sl n
9B 00
8u 121
fast _shutdown
St ack
qui et
HUBBLE _VERSION
aer ospike
5 d
C addy
[ '
e 2f
s ip
y q
DIR S
IMAGE _REPO
lib nv
at ure
HOME _DIR
ul a
CACHE _DIR
af 9
gr ay
06 14
oracle jdk8
29 87
android _home
@@[ '
ov s
2F 8
KIBANA _VERSION
lx c
persist ent
xh prof
OpenJDK8 U
libjan sson
6 04
F AST
M RAN
f 0
p ent
er ty
DE F
open c
ec ted
mo b
db 4
LA B_
OT P_
check out
MI X_ENV
gop hr
alpha 1
QUER Y_
types cript
big tru
GF_ PATHS
RUBYGEM S_VERSION
bigtru edata
1 E7
_ SE
_ PKG
_ Linux
k at
v ed
ar row
st ab
lib id
on et
run deck
openjdk 11
FL AS
asp ell
_REPO SITORY
coin d
0c 3
shell check
fu sion
crontab s
CMake Lists
2 _amd64
3 dc
_ and_
m ip
lib eigen3
no VNC
DE SCRIPTION
20 48
und er
sy sc
34 c
88 59
sys init
doc book
2018 100
fast qc
STAT US_
libopen mpi
domain s
Geo IP
libmp fr
LUARO CK
J ava
f h
UN AME
on line
INST ANCE
ver ify
entry _
se y
APP _ENV
VI SOR
PE ED
keep ali
.* $/
lab lup
fc gi
prot ector
LIBERICA _VARIANT
mark down
OS_ REPO
zsh rc
MARIAD B
PAR SE
autom ated
artifact Id
manife sts
flu me
seab orn
graphics magick
) "@@
0 64
4 b
lib as
ST ORE
or che
il ler
FA A
80 4
80 90
PHP _URL
16 2
23 b
met al
HADOOP _INSTALL
fore ver
gdb m
pay ara
asse mble
DAY S
C re
L ist
c 91
p as
s ilent
ME TRI
ar c
de fs
ch ang
linux _amd64
GIT _BRANCH
15 7
version _
OPEN CL
oo ml
let e
In fo
In dex
_PRO JECT
1_ all
iz ed
linti an
0 26
D at
G PU
P PORT
_ g
_ DIST
c ros
e ver
h at
s kel
OR G
li ce
re mi
DE VE
open cog
ut ter
EM PT
cp 35
proto s
mb ol
fre er
Re po
=" -
DB_ NAME
imp le
quick start
The ano
CY GN
first run
Caddy file
1 cd
3 ab
D vcell
E nd
h un
x server
ur u
un defined
ab 0
LIB VA_
ssh pass
scr apy
micro services
libl cms2
SERVICE _USER
POSTGRES _DB
goRel Arch
PHALCON _VERSION
A X
G ER
G ER_
L ER
P 4
w 3
{ "
CK AN
PT I
th um
ph oton
CHECK SUM
sc ape
34 4
dr uid
ELIXIR _VERSION
PHPMY ADMIN_
NCCL _VERSION
matter most
hone y
Master minds
edg ex
5 14
C lean
K 8
_ docker
_ requirements
d 78
p lain
y out
| /
st ell
st ool
en ode
or ca
ti ff
di e
65 BD
nodejs _0
ak a
84 e
OPTION AL
kafka _2
gre g
DB_ USER
LANGUAGE _MODEL
od on
ZBX_ SOURCES
\[ \
INFLUX DB_VERSION
channel s
_unknown _linux_
libcup s2
B locks
V ir
f 3a
i sc
n p
s af
v box
ON G
am i
bo th
VI EW
DB_ PORT
ind ic
/\ (
SUPER VISOR
XX_ COMPILER
ZK_ DIST
ZOOKEEPER _VERSION
rocks db
GeoLite 2
Nu Get
BACKGROUND ED
CRAF T_VERSION
0 e8
4 21
< \/
V EN
m app
q s
SU PPORT
di f
ho d
he ket
BIN _DIR
ak en
qt tools
bro ad
access _log
REST Y_VERSION
_W ARN
API_ KEY
vie wer
jan us
pulse audio
graal vm
heket i
B ack
G PL
O UR
t end
@@ `
ENV _
ec ipe
GIT LAB_
ic al
PYTHON IO
entrypoint s
APP _VERSION
END POINT
la mp
FD K
kube builder
cl ar
In fra
DOCKER_ COMPOSE_VERSION
_PASS WD
ade d
worker s
\) .*
salt stack
fastcgi _
liber ation
CNT K_VERSION
KUBECT L_VERSION
HTTP_G ZIP
MM LIB
*=.* !
elcom e
yout ube
PYTHONIO ENCODING
F _HOME
d up
f stack
f chol
k es
o us
DOCKER _PREFIX
TE LE
APP _CONFIG
java agent
_RE VISION
CU PTI
AE GI
ACTIVEMQ _HOME
GEN ER
0d 12
tcl 8
log4j 2
280 15
pic ard
frees witch
_STATIC_ MODULE
EMPT Y
fchol let
C RAN
_ static
_ BOOTSTRAP
f sync
n inno
v orbis
lib ns
ch art
EX E
go bb
GO ARM
el m
80 7
sy mbol
88 5
44 4
php7 1
22 7
BUILD_ NUMBER
RAN DOM
_LIB RARY
GO_ ARCH
netc df
not es
provision ing
FABRIC_ CA
libunwin d
craw ler
_ local
_ PATCH
p wd
ME SS
en sor
or o
ri g
99 93
dep ends
core boot
UL TI
mer ge
DOCKER_ NAMESPACE
check _
67 64
oot strap
ew d
CODE NAME
0_ all
fin al
VT ROOT
retry ing
ODO O_
OPENJPEG _VERSION
HTTP_GZIP _STATIC_MODULE
D ER
L EREPO
O 3
_ IP
n or
lib dr
ST AMP
an ber
un ame
ph en
COMP UT
post modern
web kit
DIS AB
ell h
session s
6B 4
manife st
libunwin d8
depend abot
mitch ellh
DISAB LEREPO
1 G
3 15
5 E
P roc
_ CONF_DIR
d 1
k ill
lib mariadb
ap ac
ION _
ec 4
25 9
zip kin
trusty 0
06 D
pc ap
mini on
TIME STAMP
fore man
RABBITMQ _HOME
!^ (
INCLUDE _PATH
LAME _VERSION
PS 1
Set up
fri bidi
JM X_
libid n
entry_ point
C RI
D spring
I t
c tr
d 94
g w
k ot
co gn
en s
re x
do ku
CP _
86 7
@@" --
BUILD _REF
ha in
libg sl
rub ies
dir name
bitcoin classic
MI R
bower rc
vo ke
ARM _
CMAKE_ ASM
TF_NE ED
" /@@
' '
8 001
A ll
I E
_ lib
i lity
z fs
st ri
lib python2
CM S_
64 _
OUTPUT _DIR
fa 44
was p
super set
33 A
a5 c
f4 25
CONT EXT
95 f
keras _
mips 64
_NASM _COMPILER
CMAKE_ASM _NASM_COMPILER
, --
W AY
in s
deb Multi
si mul
comm er
sc y
circle _test
libp am
ir ssi
pi g
_MA NAG
2018 112
ta iga
datab ases
++ -
909 2
overri des
nz b
Ana conda3
MESO S_
PHP_FPM_ ERROR
anber ra
debMulti arch
5 f
9 F
g test
h ard
k dc
u mp
UR ATION
lib GL
re move
ur a
NPM _VERSION
tr i
set env
@@" .
cloud sdk
PHP_ CONF_DIR
node_ 4
wr t
rm rd
mark et
overri de
high charts
NUXE O_HOME
ism rmrd
gray log
9 001
E nv
G r
_ run
a 2b
w o
~ @@
IN _VERSION
et _
open wrt
and ro
256 color
rc 2
user data
web rtc
libc anberra
PER CON
comp ass
3c 86
mini deb
deploy er
ncurses 5
OS QUERY_
PROG RAM
mar ks
Po st
snapshot s
DAPPER_ HOST_ARCH
dic tion
EXTENSION S
JCE Policy
STU B_
@@* -
MONGO_ PACKAGE
RUBY_ DOWNLOAD_SHA256
Unlimited JCEPolicy
syntax net
cartograph er_
9 16
A I
P ub
T om
X v
Z EN
_ default
c ase
r ac
IT K
DI ND
UN INSTALL
ke ley
git _
USER _GROUP
ri ch
dat ado
be 9dc
DY NAMI
qu ad
83 32
proxy _temp
93 5
cl am
1e 15
contr ast
CONT ENT
col lection
group s
HTTP_ STUB_
libpcap 0
180 3
Py YAML
Modu les
ALLOW_ EMPTY
655 36
steam cmd
ZK _HOME
FDK_AA C_VER
PAS S_
BUNDL ER_VERSION
ND_ ENTRYPOINT
_linux_openj9 _
STATUS_ MODULE
HTTP_STUB_ STATUS_MODULE
ALLOW_EMPTY _PASSWORD
: *.
C 0E
H I
d 76
f le
h am
s po
CE S
oc i
lib python3
an ti
an not
http 2
go cov
lin _
py lint
ac tions
open rasp
install ation
CMAKE _REPO
99 ce
99 36
port age
cer berus
sys _
1b 83
bl ender
2e 09
d7 f5
pa ho
MYSQL_ HOST
spec tion
aliyun cs
metric beat
En able
feat ures
Building Blocks
SEL DON
sea file
2 k
4 3F
7 d64
C FA
f at
k 1
n until
o wer
p lot
ad 113
po ly
ed b
ed 28
65 22
ce 35
wit ter
EM ON
apache2 ctl
03 fe
dd le
CTION S
b3 eb
NGINX_ GPGKEY
SERVICE _
512 M
cpu info
c0 50
pay load
LINU X
GU I
8 54
? \
F 3A
S ample
_ 8
_ x64
b es
s as
lin es
25 0c3
ri ak
se g
-- -
und a
17 f425
cf tools
84 6db
1d 60d
DOCKER_ CHANNEL
58 ee
US _VER
SNAP CRAFT_VERSION
e6 8083
0e be9dc
KNOWAGE_ CORE
18c dc3
8b 1e15
cpan m
GEN _VERSION
c0 ed28
3fa 0d12
983 d78
176 1b83
sur y
116 efe
SYS ROOT
409 0e8
hip ster
2af 6764
e34 f3a
1385 7d64
HD F5
e07 a2a
8d4 a18
27e 1d60d
be8 fa44
e3d 116efe
fb24 e2f
eb5 d7f5
af9 18cdc3
ab0 fb24e2f
3c86 58ee
DIND _COMMIT
99ce 846db
2e09 c0ed28
ad113 99ce846db
ce35 3fa0d12
03fe e34f3a
b3eb af918cdc3
c050 27e1d60d
250c3 bee
17f425 eb5d7f5
e68083 b3ebaf918cdc3
0ebe9dc ce353fa0d12
8b1e15 8d4a18
983d78 e68083b3ebaf918cdc3
1761b83 c05027e1d60d
4090e8 e07a2a
2af6764 2e09c0ed28
13857d64 e3d116efe
be8fa44 8b1e158d4a18
ab0fb24e2f 17f425eb5d7f5
3c8658ee 1761b83c05027e1d60d
ad11399ce846db ab0fb24e2f17f425eb5d7f5
03fee34f3a ad11399ce846dbab0fb24e2f17f425eb5d7f5
0ebe9dcce353fa0d12 32
983d78e68083b3ebaf918cdc3 be8fa448b1e158d4a18
4090e8e07a2a 250c3bee
13857d64e3d116efe 0ebe9dcce353fa0d1232
3c8658ee1761b83c05027e1d60d 13857d64e3d116efe0ebe9dcce353fa0d1232
03fee34f3aad11399ce846dbab0fb24e2f17f425eb5d7f5 2af67642e09c0ed28
983d78e68083b3ebaf918cdc3be8fa448b1e158d4a18 4090e8e07a2a250c3bee
9 87
> </
B it
E EB
G B
L V
L a
] +
e 1e
i er
x s
| ${
in ation
bin data
go imports
no daemon
golang ci
found ry
BUILD_ opencv_
06 0
sol c
DOCKER_ BUILD_HOME
Com mon
MB STRING
0 777
C 17
_ TO
h dp
en c
sh ard
GO ON
so und
tool box
LA GOON
os d
CL UD
vm ware
_S ITE
_S RC_
met as
patch elf
wh is
wine hq
_SRC _DIR
SHA256SUM S
spi re
Download ing
indic ator
CLUD ES
# !/
: =
A K
F 0
F PM
S cript
b la
l ong
m art
o mic
t ftp
x project
CO UCH
CON FLUENT
so dy
set h
50 5
ou te
NGINX_ RTMP
QUE UE
trac ker
_D ASH
MAX DEPTH
tend ermint
2 ba
4 567
C atal
E d
E 56
T A
c run
d 08
h or
q ewd
w g
php My
10 9
SUM MARY
pro sody
APP D_
GRO OV
gi e
libx cursor
56 72
DATA BASE_
ber keley
_PRO TO
BITCOIN_ ASC_URL
web2py _src
HU GO_VERSION
ALPINE_GLIBC_ REPO
libX 11
ltsc 2016
phpMy Admin
1 ec
C ustom
O ver
Z MQ
_ v0
a build
j ooml
l tdl
o wasp
v ips
ON LOAD
con d
con duct
ad ius
key store
PH AS
log to
str at
dist clean
ba 0
ana conda3
dr ill
DA EMON
In tel
_C N
_config _
nd one
mat ic
EF B
aria DB
libapr 1
warm up
FONT CONFIG
UnlimitedJCEPolicy JDK
datado g
) )\
. $
0 600
D 8D
M ariaDB
W AL
[ :
_ tr
b g
d md
t ers
y e
VER _
ST ATE
op f
:// *:
ver i
ine d
ubuntu 18
13 9
99 86
BASE _VERSION
21 E
sel user
BITCOIN_ PGP_KEY
AUTH _
docker_ entrypoint
AST ER_
"$@ "\
CI_BUILD_ PYTHON
_MY SQL_
qtbase 5
Cent OS
SELDON _HOME
- *
9 80
D y
_ load
_ to_
e le
g cov
y u
lib v4l
ENV IRONMENT
po ll
00 16
and re
LINK ER
us _
mi bs
man ual
87 fc
93 bd
TARBALL _FILE
ADMIN _PASSWORD
X265 _VERSION
noti fication
ANDROID_NDK _HOME
doku wiki
6 20
: ]
_ ASC
ER L_
EN SU
or s
@@. \
ro le
th a
do w
inst alling
ed 07
ED 23
compo site
pi v
94 b
76 8
2A 8
libr svg
BASE_ PACKAGE
Mo de
ky ma
OpenJDK 11
RABBITMQ _VERSION
mu le
ELASTI C_VERSION
Te mp
INTER ACTIVE
TF_NEED_ CUDA
bam boo
goRel Sha256
IZ ATION
bai du
1 14
E 16
V NC_
\ |
l k
n max
ro m
sh ipy
ti de
app rop
ab 92
so u
ho g
OP US_VER
ut f
ri ate
he vc
tor rc
JAVA_ TOOL
bootstrap _
67 BA
e5 c
jav asc
SETTING S_
GST REAM
OS_ COMP
VORBI S_VER
OGG _VER
"; \
block chain
X265 _VER
HIVE _HOME
PLONE _VERSION
eco system
EV ENT
factor io
wq y
approp riate
JAVA_TOOL _OPTIONS
; /@@
M AG
S 3
S u
S BIN
V ATE
r p
y i
lib qt4
ht passwd
arn ing
app le
COMP ILE
be a
be xtension
af l
17 9
php7 0
for ms
default Server
23 99
sw an
HTTP _REALIP_MODULE
ant ine
hy gie
DB_ TYPE
8u 112
tur tle
CATALIN A_
ench ant
SON AT
CLI _VERSION
=$ ?\
ALPINE_GLIBC_ BASE_PACKAGE
=$( ($
sg x
STATIC_ LINK
vul hub
MEMORY _LIMIT
PAGES PEED
moc ha
flo at
).* !\
enum 34
mast odon
gobb lin
shipy ard
hygie ia
ALPINE_GLIBC_BASE_PACKAGE _FILENAME
% @@
6 78
9 1b
B LA
\ $
} )@@
ER PRINT
st u
CON FD
ht access
es _
int s
be am
packag er
90 1
ROOT FS
ING ERPRINT
05 b
89 83
bro t
sche mas
\( .*\)
VORBI S_VERSION
2B 7
cal c
DEPLOY _USER
197 38
intro spection
METRI C
4 3E
C 01
P EC
_ plugin
g 7
h ex
o id
s d_
co pr
go metal
apt est
deb ootstrap
00 EF
download _
EC 39
04 E
17 c
97 07
55 2E
84 234
57 6522
om ni
stre ss
HA WK
8F 2399
sel don
TF_ CUDA_
7A EC39
EF CFA
gu ess
7E 00EF
SONAR _
OGG _VERSION
ZBX_ TYPE
9af4 9936
176 ed07
d164 34c
CASSANDRA _VERSION
cam unda
|||| ||||
HTTPS_ PORT
585 2db
1eb 099
bc3 176ed07
_report ing
1614 552E
8aa 93bd
List en
33A 8F2399
Xv fb
conduct or
87fc 9af49936
ab92 19738
GSTREAM ER
84234 37
576522 7AEC39
EFCFA 7E00EF
d16434c 87fc9af49936
5852db ab9219738
1eb099 bc3176ed07
1614552E 5765227AEC39
8aa93bd 5852dbab9219738
EFCFA7E00EF 33A8F2399
d16434c87fc9af49936 8423437
1eb099bc3176ed07 8aa93bd5852dbab9219738
1614552E5765227AEC39 EFCFA7E00EF33A8F2399
1eb099bc3176ed078aa93bd5852dbab9219738 d16434c87fc9af499368423437
( ?
2 88
3 eb
E last
F 24
c _
c ups
r ock
lin ks
un install
PARE NT
cur ator
tr unk
16 55
source ware
UTF 8
end point
@@~ /@@
tran sl
CONF _FILE
pa x
fac tory
_CLI _VERSION
wrap docker
GRADLE _HOME
XVID _VERSION
CMAKE_C XX_COMPILER
LIBOP EN
arte mis
brot li
gometal inter
C 37
F RO
Y _HOME
c 97
j fro
m j
ar ray
PG VERSION
ch ild
lin trc
mp t
no vnc
ic d
OP US_VERSION
sql alchemy
ex r
34 D
55 D
libp ulse
libf use
ir on
we ight
uwsgi _temp
GOLANG _DOWNLOAD_SHA256
mat rix
fastcgi _temp
Par is
root_password _again
Analy sis
VIP S_VERSION
opend ap
Win dows
UnlimitedJCEPolicyJDK 8
jfro g
- %
6 AA
_ ex
d file
j hipster
k t
p le
r ipt
en a
AP R
LO UD
go code
ad duser
deb s
ab e
jdk 11
xml reader
FF F
stat ion
image _filter_module
\/ /
dr ag
DATA _PATH
path info
LU S_
.. .
Log Files
SB T_HOME
resol ver
LUA JIT
JIRA _INSTALL
hawk bit
scgi _temp
fix_ pathinfo
Conn ector
tracer oute
1 trusty0
C XX_
D oc
P ROM
_ _init
j ects
l apps
v cl
PA HO
CH INE
ch root
at us
go x
80 82
14 DA
af 8
scrip tion
ng x
fl annel
pl y
error _reporting
8u 171
ta ch
distribu ted
ko di
\) /\
asy nc
OPENSSL _PATH
DOMAIN _NAME
!^ #\
CLOUD _SDK_VERSION
autore conf
dark net
THEOR A_VERSION
jmx_ prometheus_
MIR ROR
OpenJDK11 U
SONAT YPE
__init __
+ !\
_ CORE
b ra
e j
s ocks
PY _VERSION
le ap
it ch
KEY CLO
ma int
HO TS
ol fs
ts config
ex perimental
EXPORT ER_VERSION
ED ITION
ll db
cd h5
CREATE _DATABASE
asp loit
CU _
install_ device
ber os
lua lib
NEO4J _HOME
BD 8
E7 AE
bed tools
MYSQL ND
MYSQL _PASSWORD
NEX US_VERSION
easy _install
utor rent
FREETYPE _VERSION
zh _CN
CNT K
boun cer
LIBVIDSTAB _VERSION
kot lin
5 94
8 C5
9 04
_ CODE
b lo
b 68
i q
AT OR
on nx
apt _source
tu al
10 2
ang er
pack et
15 86
99 83
start er
mysql db
ce f
ERN ET
dis co
@@"/ "@@
FL AG
ell y
73 09
2A 6
COMPOSER _VERSION
8E E
own er
OPENCAS T
Mon itor
digit al
pip_ pkg
CLIENT_ CREATE_DATABASE
CYGN US_
COMPUT E_
KNOWAGE_CORE _ENGINE
FONTCONFIG _VERSION
/ !
7 BB
G LI
G MMLIB
T ag
a 35
f lix
k le
l t
m or
m ux
m si
r r
r ss
~ =
AR RO
lib io
lib gle
re ports
re porter
con stra
un used
se qu
ian t
per mission
18 _amd64
ruby 1
libx i6
57 c5
87 22
/$ /
grpc _
SERVICE _NAME
_RUNN ER
x11 proto
CLOUD _VERSION
LOG_ LEVEL
329 11
F9 E
4D 31
rq lite
freer adius
metas fresh
2 6C2
B 2
C 78
D file
E 29
M U
P UBLIC
RE E
RE INSTALL
oc e
25 D8D
10 8
08 9B
09 C78
AF _VERSION
ERN AL
FD 0D
ED 67BA
ED 8C5
ED 089B
C2 26
client _temp
um u
FF 49
19 BD
hadoop _
76 2A6
05 8B
9B 04E
89 C0E
36 D
95 BB
20190 5
58 ED089B
128 M
chain code
466 E7AE
TARBALL _ASC
Server Name
demo s
B9 FD0D
0E 058B
CF B9FD0D
SERVICE _HOME
squ ash
3E 1586
0C 0E058B
EA 2A8
EA ED67BA
8B 43F
6B 310
6B FF49
9C 9
ANDROID_SDK _HOME
SK Y
6E 0614
dest ination
lz 4
noti ce
197 58ED089B
A6 762A6
CB_ PACKAGE
libgomp 1
MYSQL_JAVA_ CONNECTOR
FAA ED8C5
Dy nam
8722 6E0614
32911 EAED67BA
4D31 EA2A8
26C2 95BB
25D8D 0C0E058B
09C78 32911EAED67BA
19BD 9C9
9B04E 25D8D0C0E058B
466E7AE 9B04E25D8D0C0E058B
CFB9FD0D 466E7AE9B04E25D8D0C0E058B
3E1586 CFB9FD0D466E7AE9B04E25D8D0C0E058B
8B43F 09C7832911EAED67BA
6B310 A6762A6
6BFF49 87226E0614
19758ED089B DD
FAAED8C5 19758ED089BDD
4D31EA2A8 FAAED8C519758ED089BDD
26C295BB 4D31EA2A8FAAED8C519758ED089BDD
3E1586CFB9FD0D466E7AE9B04E25D8D0C0E058B 26C295BB4D31EA2A8FAAED8C519758ED089BDD
8B43F09C7832911EAED67BA 6BFF4987226E0614
6B310A6762A6 3E1586CFB9FD0D466E7AE9B04E25D8D0C0E058B26C295BB4D31EA2A8FAAED8C519758ED089BDD
8B43F09C7832911EAED67BA6BFF4987226E0614 6B310A6762A63E1586CFB9FD0D466E7AE9B04E25D8D0C0E058B26C295BB4D31EA2A8FAAED8C519758ED089BDD
" }@@
3 89
B io
B F5
I KI
W AP_
c db
r am
s witch
t al
PO OL
ker beros
MAKE CACHE
php ize
db path
13 2
11 7
55 55
LD _PRE
stem mer
code load
kr aken
_C ERT
cy press
LOCK _DIR
acti v
APACHE_ LOCK_DIR
0x B1
NUM _
_G B
LIBAS S_VERSION
KO PA
REPORT _ENGINE
UBUNT U_VERSION
optimi zer
FRIBIDI _VERSION
612 19BD9C9
Non interactive
mip sel
EXE _DIR
HOTS WAP_
9983 61219BD9C9
LD_PRE LOAD
0xB1 998361219BD9C9
HOTSWAP_ AGENT_VERSION
0 644
D 22
T EXT
t ap
z o
@@ :/
de lu
SE LE
mp m
py crypto
lu s
sc v
13 17
cli o
gr p
34 9
bb 7
OPEN MPI
sys stat
73 1
regi ster
nu clio
XX XX
IG H
GST _
libgmp 3
det ection
incub ating
display _errors
babel rc
UWS GI
KVAZAAR _VERSION
crun chy
FRO ZEN
1 25
_ NO
n ic
t ak
ER LANG
li a
st ools
as sist
el et
se en
ian mi
dep th
back rest
man ce
B_ INIT
lite coin
fre ef
mpi ch
(' /
sign ed
her on
gra ils
remote_ enable
imi ell
DUM B_INIT
MEDIA_ DRIVER
stell ar
whis per
jooml a
sd_ shutit
ianmi ell
' -
/ <
2 65
6 D
G P
M L_
c all
g io
o int
r at
t witter
x tr
x auth
@@ </
con tiv
ri ght
34 7
libg if
libp ci
26 db
ms corefonts
MYSQL_ CLIENT_CREATE_DATABASE
libpq 5
abi lity
tur n
ug id
rout es
GALA XY
CLUST ER
PROTOBU F_VERSION
Sup port
D CE
d 86
h d
z ed
AL F_HOME
IN _HOME
on _
sh a512
VE _
dk im
ag ull
debian 9
id s
33 3
cuda 8
cuda 10
gnupg 1
1e 39
PHANTOMJ S_VERSION
simple xml
Git hub
USER_HOME _DIR
280 8
pho to
VA_ GSTREAMER
chang es
VA_GSTREAMER _PLUGIN
1 EF
B FF
e io
f g
g ang
r ds
st amp
op le
un ing
FORCE _
tr ash
FA 7
80 22
12 2
rc lone
20 7
init ial
90 F
85 bb
_S PA
mb l
cb f
HE AL
libopen core
param iko
================ ================
NGINX _VER
libjemalloc 1
DEVE LO
scy lla
logto stderr
4 _
7 13
S w
c phalcon
d ro
g ad
p thread
} ;@@
@@/ ${
co unter
li v
sr oss
re direct
go gs
es y
SET UP
net works
55 3
6A 19B
ms mtp
lean ote
38 D3
BB E
Con sole
JDK _VERSION
consul _
", "
D83 1EF
ACTIVEMQ _VERSION
NEX US_HOME
clas si
STOR AGE_
pent aho
hun spell
1655 36
6A19B 38D3
6A19B38D3 D831EF
3 FA7
A 94
C ENT
M X
M S_
R environ
g dk
h b
j ni
p art
s ap
EX PAT
es lint
dev stack
25 84
net data
php 55
@@" ./
af ter
test user
ssh 2
97 b3
32 8081
AA 6A19B38D3D831EF
6A 14DA
cr s
BUILD_ TYPE
BUILD_ EXAMPLES
amp lify
micro httpd
29 AA6A19B38D3D831EF
75 2
_INSTALL _PATH
dd d9
black fri
ink en
fu tures
Un supported
ste em
E0 328081
rus sross
NVIDIA_ DRIVER_
OSX CROSS_
QEM U_
Infra structure
javasc ript
(? =\
BFF 6A14DA
3FA7 E0328081
blackfri day
BFF6A14DA 29AA6A19B38D3D831EF
3FA7E0328081 BFF6A14DA29AA6A19B38D3D831EF
Q C
S R
m r
t ce
TH IR
lib microhttpd
ch i
th ic
ip v6
ang oc
eb ro
24 77
sor t
55 8b
83 b
GOROOT _BOOTSTRAP
_S KIP
57 83
ae 07
30 dc
Re ad
fil ters
hi bit
SOLR _USER
types afe
900 e
SPHIN X_VERSION
asciidoc tor
FLAS K_
VEN DO
HEAL TH
NVIDIA_DRIVER_ CAPABILITIES
5 86
S imple
c ad
c xx
p ep
r n
w ill
al _
re write
ap se
lo ok
th re
ri de
APP _PORT
14 393
db 2
08 c
nodejs _4
min at
sdk _r
92 92
ali ases
graph ql
nam enode
wh ere
DOCKER_ BUCKET
scal er
') ,
2f 88
API _URL
caffe 2
network x
keras _pre
KUB ERNET
_install able
base_ tag
DEB_ PACKAGE_VERSION
RUNC_ COMMIT
pre20180 4
Or acle
gluster fs
LUA_ CPATH
VARNI SH
WILDFL Y_VERSION
keras_ applications
(?=\ ")@@
keras_pre processing
4 33
D 9
F o
J S_
P DO
V L
W HE
_ RO
g on
DI SC
no group
do op
file path
se agull
15 2
ex s
13 ba
34 46
08 57
core _
83 1f
39 e
ld d
98 E
SQ LITE
75 2d
03 8
sol ar
89 33
sub mit
sm art
ai ro
vol tha
lib32 ncurses5
aur ora
ansible_ connection
V8 _VERSION
BY TE
KERN EL
FM W_
SONARQUBE _HOME
sysc tl
libdr m
Tom cat
Dynam o
freef ont
4 001
7 88
D rop
P URE
R D
T LS
_ in
_ latest
e fc
f ab
i ris
n _
o st
p late
r ink
t n
u os
de 0c
en gin
no input
to do
25 30
ri se
db 54
20 13
mi r
LD _FLAGS
19 1
cloud front
met asploit
93 e5
78 B
HTTP D
tensor rt
fre egl
DOCKER_ HOST
BC B
GOLANG _DOWNLOAD_URL
RELEASE _SERVER
leg ion
_SRC _URL
AW IKI
NASM _REPO
MEDI AWIKI
YASM _REPO
mun in
RABBITMQ_ DATA_DIR
Event Bus
REACT _APP_
keepali ved
freegl ut
% .*@@
0 18
A 27
F C2
I MENT
M AE
O DBC
X ss
Z S_
_ common
k amai
m ruby
IMAGE _NAME
AD A
ch rpath
es e
ma y
00 7d
GIT _URL
CP U_
FA CE
su ms
LIB GIT
24 5
ini sh
90 6
sp id
ers on
work ing
bc 5
56 01
1a 6f
bt c
d8 b4
0e ff
miss pell
7a 05
2017 12
ENTI AL
COL LECT
jan sson
Th is
LUARO CK_
uti lity
permission s
. /.
/ @
@ ${
D AV
E U
_ SECRET
h il
| \
RE SU
de clar
co un
SU ITE
as ca
at t
ad io
no mad
un set
BO T_
dat ap
BU ST
99 5
fa 6d
18 83
init scripts
mon asca
comp il
par ent
win dow
gpg key
60 e5
chain tool
Ma il
_BUILD_ DEPS
2a 09
lp thread
_SS L
jupyter_notebook_config _
ide abi
PS_ PACKAGE
chec ks
PLUG IN_
FES S_
dispatch er
Gr aph
andro ideabi
minat im
H e
L AS
Q L
\ @@
_ arm
d cos
g deb
l r
t ux
x d
y ang
TARGET _DIR
ST RO
64 d4
py 36
py side
open gl
ec 87
25 0e
SY NT
14 15
ex ist
LIB D
LIB X264
FD B
57 e
fb 646
HTTP _S
1e 2
9b df
1d 831f
exec ution
let s
cor s
BD CD
ru ss
cudnn 6
697 1d831f
buff alo
c1a 6
Add ing
f76 19
e9b 6971d831f
GLASSFI SH_
crc mod
d08 f5
Over ride
94b 23
SONAR_ SCALA_VERSION
752d db54
93e5 1cd
kamai lio
0eff 752ddb54
gdeb i
ec87 e9b6971d831f
fb646 93e51cd
0eff752ddb54 fb64693e51cd
ec87e9b6971d831f 0eff752ddb54fb64693e51cd
6 16
9 BA
B ot
N ative
V 2_
_ 7
_ de
_ for
b p
f fi
h older
j wt
lib python
lib notify
ad 9ed
di g
ed 66c
80 8
16 12
mo v
eb 165
S_ USER
gr u
DOCUMENT _ROOT
32 82
66 e9b
SUB _MODULE
libx fixes
_S W
57 3446
87 23b
56 0857
1d 98b
1d 30dc
1f 900e
fc b07
2e 9bdf
38 ed66c
f5 e08
58 d76
31 adc
42 f7619
HTTP_ SUB_MODULE
40 66e9b
_LOG S
/* -
3d 554
e2 dd8
ca9 560857
641 fa6d
3488 fcb07
f9 2530
8f 2584
f3 84e
fbe f2
304 250e
kar af
2f5 85bb
095 8723b
204 2e9bdf
1024 m
329 e2dd8
576 3c7
FLUENT D_
b07 31adc
66c 0958723b
d1f eb165
fd6 f5e08
fe4 ca9560857
324 ddd9
09a 573446
848 2f88
558 1d98b
autop oint
707 c97
fcd 324ddd9
957 fd6f5e08
c68 d08f5
3dc itydb
c91 97b3
e1e 707c97
0016 e1e707c97
e5c 2477
antine x
05b 4066e9b
a35 c9197b3
1317 1e39
8022 1f900e
558b d8b4
5783 1d30dc
ae07 8f2584
13ba 3d554
de0c 007d
engin es
1a6f 13171e39
7a05 b0731adc
60e5 957fd6f5e08
2a09 fbef2
94b23 2042e9bdf
ad9ed de0c007d
1612 3488fcb07
38ed66c 5763c7
58d76 7a05b0731adc
42f7619 8482f88
641fa6d 60e5957fd6f5e08
f92530 2a09fbef2
f384e 58d767a05b0731adc
304250e 38ed66c5763c7
2f585bb 80221f900e
329e2dd8 94b232042e9bdf
d1feb165 f925302a09fbef2
fe4ca9560857 c68d08f5
09a573446 a2b
5581d98b fe4ca9560857c68d08f5
0016e1e707c97 1a6f13171e39
e5c2477 641fa6d60e5957fd6f5e08
05b4066e9b d1feb165f925302a09fbef2
a35c9197b3 ad9edde0c007d
558bd8b4 c1a6
57831d30dc f384e58d767a05b0731adc
ae078f2584 558bd8b4c1a6
13ba3d554 05b4066e9bd1feb165f925302a09fbef2
16123488fcb07 a35c9197b3ad9edde0c007d
42f76198482f88 5581d98bfe4ca9560857c68d08f5
304250e38ed66c5763c7 57831d30dcf384e58d767a05b0731adc
2f585bb80221f900e 66c0958723b
329e2dd894b232042e9bdf 13ba3d55405b4066e9bd1feb165f925302a09fbef2
0016e1e707c971a6f13171e39 fcd324ddd9
e5c2477641fa6d60e5957fd6f5e08 0016e1e707c971a6f13171e39fcd324ddd9
16123488fcb07a35c9197b3ad9edde0c007d 2f585bb80221f900e66c0958723b
42f76198482f885581d98bfe4ca9560857c68d08f5 ae078f2584558bd8b4c1a6
304250e38ed66c5763c757831d30dcf384e58d767a05b0731adc 09a573446a2b
8 CA
B er
G ING
H t
\ ]\
_ at
_ deps
c us
f ar
h c
l or
u th
} )
TH RI
li qui
al ang
FI L
on si
op ic
sh inken
mp 4
DE E
ab el
ri scv
google _
ue k
NG X_
S_ SHA256
head er
mysql d_
ruby gem
cf e
ig ger
wh at
_C RO
fast dfs
NOT VISIBLE
syn apse
quick lisp
MET A
_DE VICE
len ses
stream_ geoip_module
many linux
CROSS PLATFORMS
MAE STRO
4 f
C 10
C las
D FOREGROUND
E 084
P N
R ARIES
_ engine
b bc
h ass
k de
p sql
RE VISION
py zmq
ti fication
HO LD
install 2
pg bouncer
sc tp
65 A
ha il
ha ve
32 3
_RE ST
6A 5
libp angoc
elast alert
PHP_ EXTENSION
DA B9
ed_ corpus
wheel s
iv y
bench marks
ban k
DR ONE
CMAKE_ C_
nginx_ signing
sing ular
VAUL T_VERSION
ORIENT DB_
NEXT CLOUD_
_FLAGS_ COMMON
_PID _FILE
GERR IT
OSQUERY_ BUILD_USER
OPENMPI _VERSION
E084 DAB9
libpangoc airo
E I
J HIP
N IFI_
P RI
T D
X DG
_ socket
b en
c git
x pr
{ \
RUN E
de ci
oc loud
:/ /@@
SO CK
ro und
py spark
REPO _PATH
ex pose
us ing
ff t
jessie 1_amd64
90 3
mi ddle
source graph
qu ali
54 6
50 B
gnup lot
DB _PASSWORD
wh ite
wh ile
url lib
disable d
distribu te
toml v
GST _PLUGIN
libt info
DOLI _DB_
Sy stem
NON FREE
cp36 m
xcb 1
Elast ic
liqui base
JHIP ST
- .*
D 2
I V
I 18
P _VERSION
V 4
W ith
c si
c vm
q 7
co p
en _GB
as erver
ht ool
go _
go lo
go ut
ac 83
el stack
ho le
bun d
PYTHON DONT
12 U
WRITE BYTE
19 5a
87 e
met ry
wi z
d6 3f
updat er
_HOST NAME
OpenJDK 12U
SUBMODULE S
Net work
inf ini
liblz 4
MONGO DB_
Qt 5
traffic _
Media SDK
MYSQL_ROOT _PASSWORD
deli on
POWER SHELL
SETTINGS_ MODULE
jmx_prometheus_ javaagent
SYNT AX
cvm fs
PYTHONDONT WRITEBYTE
PYTHONDONTWRITEBYTE CODE
G S
I ST
L IMIT
P I_
a 87
g 6
l c
w ater
z or
re fs
PG USER
as on
py asn1
ac ter
ag greg
php _
pr 4
sp in
SUB M
gen rule
NET DIR
cron d
way s
jo in
Wor ker
SWIF T_
SWIF T_VERSION
Type Error
cep tion
TIME_ ZONE
spawn _strategy
ER_S LEEP
grav ite
_PUBLIC _KEY
qttools 5
libns pr4
MYSQL_JAVA_CONNECTOR _NAME
WHE EL
Clas si
JHIPST ER_SLEEP
SYNTAX NETDIR
genrule _strategy
L e
S pec
T ime
j elly
s net
t ro
t ry
z i
PA YAR
CMD BUILD_VERSION
go rele
me ga
node s
openjdk 12
ing en
da mage
fa 5
32 7
pe dia
dc d
BUILD_ TESTS
PRO B
ng http2
07 00
30 303
content s
9b 56
a8 27
CONTAINER D
jo hn
gat k
VA API
tun e
place holder
AUTOMAKE _REPO
DEB CONF
DRUP AL
PHPMYADMIN_ SOURCE
freeglut 3
I18 N
0 g
1 ae
8 99
9 u
P IN
X Y_VERSION
c art
l dif
u es
v v
AL T
de ad
lib q
CD F
ser iali
jdk 7
80 1
12 _amd64
data _
str ation
for tio
nss _wrapper
trans form
bio conductor
lot on
chain er
ASPNETCORE _ENVIRONMENT
bundle d
SW IG
program s
Ex ec
OC TO
uti lities
ORIENT DB_VERSION
Miniconda 2
CUSTOM _
DJANGO_ SETTINGS_MODULE
2c8 ac
RESU LT
F INGERPRINT
G Y
H AR
_ 9
_ DATA_DIR
g 0
PA RA
CH A
at tach
ad ic
MAKE FLAGS
bo y
fo ss
sq ue
res net
res ult
09 6
stable _64
kub elet
work shop
57 5
met hod
exec ut
ob s
wr k
geo lite
ru mp
TF_ SERV
collect static
char acter
"$@ "/
a86 e
dan delion
tech no
133 89
autore move
METE OR_VERSION
PT_ COMMAND
powerpc64 le
VERTICLE _HOME
WAL K
PROM PT_COMMAND
SKY WALK
bund les
B S_DIR
E 62
J RE
c kp
f name
j d
r utorrent
RUN TIME_
lib app
lib dc
lib atk
it er
EX CLUDES
il ter
ent um
ab 5
ot al
be 08
PKG _NAME
au ge
nc WMS
gnu abi
39 4
93 97
mul tip
47 a0
2018 110
mail hog
we ave
conn ec
light ning
SETTING S_DIR
freetype 2
ste phen
c3 ac83
toolchain s
So ft
oth er
configuration File
CI_ BUILD_REF
star let
}| ${
LS_ SETTINGS_DIR
b13 620
205 92
ioncube _load
063 cf
patter ns
scri be
1bb b13620
typo 3
gad get
64d4 195a
CMAKE_C_ COMPILER
9b56 13389
gnuabi 64
47a0 64d4195a
c3ac83 a827
1bbb13620 c3ac83a827
9b5613389 1bbb13620c3ac83a827
47a064d4195a 9b56133891bbb13620c3ac83a827
3 16
3 600
C er
D pkg
P RUNE
R AS
_ TAR
_ ADDRESS
in sight
NO GPG
NO TI
lib k
sh rink
me lo
conf s
file info
ol t
tu dio
eb ba0
sy mpy
LIB CURL
34 95f
LOG _FILE
id x
22 1
92 9
ae a86e
mb er
f4 063cf
acc umu
xf ce4
1b 635
HTTP_ V2_
59 be08
[. ]
ENABLE_ TESTS
play books
9cf ebba0
ensu s
168 1415
3c7 3495f
virtual box
MAJOR _VERSION
SPR ING
libxrand r2
138 2c8ac
LUAROCK S_VERSION
Dat abase
_WARN ING
constra ints
LIBGIT 2
d63f 1382c8ac
20592 9cfebba0
NOGPG CHECK
aea86e 3c73495f
accumu lo
1b635 1681415
HTTP_V2_ MODULE
59be08 1b6351681415
d63f1382c8ac 59be081b6351681415
205929cfebba0 d63f1382c8ac59be081b6351681415
aea86e3c73495f 205929cfebba0d63f1382c8ac59be081b6351681415
aea86e3c73495f205929cfebba0d63f1382c8ac59be081b6351681415 f4063cf
& /@@
E AP
d sa
h p
v mail
AS PER
it u
ke arch
jdk 8u
13 4
BUILD _URL
ion s
dist utils
65 7
32 8
_F ULL
for mance
update _
ng s
OPEN MP
HTTP_ DAV
schema 1
ALPINE_GLIBC_ BIN
ADMIN _USER
_PLUGIN S_DIR
KAFKA_ CONNECT
jdk_ x64
LVM 2
And roid
bell soft
CONTAINERD _COMMIT
HTTP_DAV _MODULE
0 A
2 11
A TH
B 77
D FF
F RONTEND
M AGENT
[ "
_ LEVEL
b 1
e 2c
n localhost
RE EN
INST _
ho u
10 25
APP S
pg pool
LIB MP3LAME
gn at
qu ake
env vars
cr ash
37 8
comp ut
01 _
intel li
gradle w
mk docs
fore go
__ py
Xmx 512m
pn gout
THREAD _
LLVM _
BITNAMI_ PKG
TEST_ ASSET
WORDPRES S_VERSION
train ing
Str ing
OD M
OTP _PATH
dra ios
ther ecipe
ZULU _ARCH
urllib 3
8 B6
; *
? .
D ES
D 39
K U
R u
T ok
b w
h in
h on
l g
m um
p ed
CH _VERSION
SI N
IN GROUP
re ference
ch u
as _
or th
http lib2
loc ate
python _version
CONFIG URATION
ol low
pro filer
mo s
14 1
cache __
is on
xml to
ne ws
cl on
60 28
mpi run
HTTP_ AUTH
custom _
API _VERSION
CROSS_ PREFIX
Co unt
So urces
ide a
BUNDLE_ APP_CONFIG
brain z
_se ed_corpus
librsvg 2
child ren
squash fs
Dynamo DB
__py cache__
1 _1
2 M
M SDK
R et
T uning
_ tests
_ 2_
_ cluster
b x
n ut
v r
RE BAR
RUN N
CON FLU
IF EST
lib n
go thic
ot oro
OP END
bo iler
ts uru
cat ch
OL FS_VERSION
_M ULTI
stor s
libx i
libx 264
2b an
Ar gs
zer oc
PROJECT _PATH
_app engine
dock cross
=\ $
devops il
PI LO
ZBX_ DB_TYPE
obj ects
osr m
times cal
_REQUEST _MODULE
FDK AA
La unch
assist ant
FLASK_ APP
HTTP_AUTH _REQUEST_MODULE
CONFLU ENCE
' ]
3 83
6 B6
C LOB
E 87
H IGH
Q T_VERSION
S im
X S
g conf
h m
m ask
r kp
w elcome
y t
@@ */
ar s
de lete
et ricks
at om
sh e
ad ala
ur ge
po sit
all s
conf old
ag adala
AN SI
PHP _HOME
77 28
13 28
90 80
sp lit
LOG LEVEL
qu ark
cmake 3
83 F
201 8080
pi gz
ra ster
cl j
win etricks
c5 8
son ic
flux box
aa S
ug ly
ky lo
ANDROID_ DEV
utf8 _
fail 2ban
pop ulate
X264 _VERSION
lein ingen
argon 2
firm ware
depot _tools
spo tify
9986 DB
Doc ument
DynamoDB Local
CLOB BER
rkp agadala
* =
6 ed
; ./
B CM
E 93
F UN
I GN
P NG
R B
T RACE
g 5
h ep
s stephen
li ze
IMAGE _
go l
mp roxy
am bi
so x
el k
ag en
PHP REDIS_VERSION
db pedia
PKG _RELEASE
test data
the an
age _
PLACE HOLD
xml sec
cr ate
WITH _T
api _
37 09
system ctl
01 15
cp 2k
pi 2
produ cer
group Id
500 1
ru c
pipe work
SDK _VERSION
On Idle
cacer t
loop back
pix man
shim s
nik to
OTP _VERSION
Idle Tuning
janus graph
LV _COMMIT
libapp indicator
sstephen son
2 C
5 LIB
6 1B
= `
? (
C 93
D AF
E 86
E OL
T RA
X 86
_ scripts
a 64
c loc
c ash
d space
e ed
i re
l mdb
r X
r torrent
t iller
v g
ME TH
IM G
AD 5B
re pl
INSTALL ER
tu s
be an
lu e
LA Y
LIB VORBI
LIB X265
LIB VPX
44 68
66 19
dir s
22 9
37 24
85 29
84 D
cd h
CRE D
hkp s
ick le
sys linux
20180 4
CONT RAIL
APACHE _PID_FILE
front ends
ln mp
SV _
=' /
ALPINE_GLIBC_ I18N
prestashop _1
UNI QUE
PET SC
INTER VAL
JU PY
684 3
S6 _
cub las
libnv infer
ALPINE_GLIBC_BIN _PACKAGE_FILENAME
ANDROID_DEV _HOME
PLACEHOLD ER
LIBVORBI S
ALPINE_GLIBC_I18N _PACKAGE_FILENAME
! !
3 F4F
A C2
C 60
J A
M ain
O PAM
V C_REPO
_ prefix
d re
i den
m me
m ary
m stors
n ms
x j
AS Y
ST AND
go vendor
ke h
net core
SERVER _VERSION
AA A
37 e6
ns kip
CHROME _
BA 5
npm js
libx composite
OPEN STACK
win d
mini strator
book keeper
TOM LV_COMMIT
baz aar
8u 131
8u 151
HE VC_REPO
setup_ 4
wheel house
BF 76
network ing
=' *
POSTGRES _PASSWORD
Error Log
options 1
offi cial
rad ius
SVT_ HEVC
SVT_ HEVC_REPO
385 9397
sur face
_MAX_ SIZE
libmp c
A3 AD
UNI COR
neuro docker
opent rac
LISTEN _PORT
lection s
Ana conda
UWS GI_
Allow Override
605 9
RSTUDI O_VERSION
thum b
TIMESTAMP ING
TF_CUDA_ COMPUTE_
hil bert
otoro shi
thean orc
mstors jo
SVT_HEVC _VER
TF_CUDA_COMPUTE_ CAPABILITIES
) "
4 7309
7 344
A 276
B 100
D CFD
D 3EFE
E 9999
M ac
b el
s now
t 1
x acc
} ,
UN K_
li ca
lib sn
lin aro
mp d
AG GER_
64 C17
64 BCB
CD 23
CD 3F
CD 8B
RECUR SE
DE 8B6
25 E0
FA E5
10 A5
CA FAE5
86 867
EC BA
gc e
bo keh
em atic
13 C37
20 7D
11 BBE
04 C5
ARCH _
mit h
AA 50B
66 A3AD
C5 DF4
C5 064
gi ga
33 110
54 1F
pre built
22 C4F
22 E5
37 C0
code cov
84 E7
84 ECBA
BA 6
3B 7BB
92 885
92 CD8B
94 9707
DB 5B
DA 48
35 E0
05 AB
1D 6843
libffi 6
95 DB5B
BB 64BCB
AC B77
BE 7D
79 F7
8F 78B
F7 DA48
A9 C5DF4
Sh ar
BF 8CA
486 65A
0F 9B00
2F 6059
FFD 8D
07E 48665A
832 AC2
90B AA50B
A1 C5064
juli alang
CONNECT OR_VERSION
C6 90BAA50B
7E E6
110 C01
D4 98E
spi 2
8D 987
get_ python_
HUBBLE _
1C 37C0
FB 21E
Gen er
F1 ECA
F1 C5A
37D 42
smoke ping
C5A 2F6059
D8 11BBE
193 1D6843
aug ur
libgnutls 28
5A5 110C01
508 4468
818 FFD8D
075 64C17
9E3 D3EFE
07A 10A5
Rep ort
2F8 ACB77
026 C690BAA50B
Vir tual
935 CD23
F3A 04C5
43E 3B7BB
34D CAFAE5
55D DEE
E29 AC
D22 E9999
libpci access
90F 0F9B00
752 DE8B6
038 92885
8933 C60
A27 9E3D3EFE
FC2 E86
EU LA
C10 D498E
6A5 F1ECA
E62 6619
6B6 86867
7728 9986DB
83F 1931D6843
61B 832AC2
C93 A279E3D3EFE
3F4F 22C4F
47309 207D
7344 752DE8B6
A276 77289986DB
B100 D811BBE
DCFD 35E0
CD3F 83F1931D6843
25E0 55DDEE
13C37 03892885
66A3AD 3F4F22C4F
33110 949707
541F BE7D
22E5 E626619
84ECBA 7EE6
92CD8B 66A3AD3F4F22C4F
05AB 33110949707
95DB5B 6A5F1ECA
BB64BCB 84ECBA7EE6
79F7 026C690BAA50B
8F78B 25E055DDEE
F7DA48 BB64BCB84ECBA7EE6
A9C5DF4 D22E9999
BF8CA 7344752DE8B6
07E48665A 34DCAFAE5
A1C5064 07564C17
8D987 5A5110C01
1C37C0 37D42
FB21E 8933C60
F1C5A 90F0F9B00
C5A2F6059 E7
5084468 2F8ACB77
818FFD8D CD3F83F1931D6843
935CD23 C10D498E
F3A04C5 95DB5B6A5F1ECA
43E3B7BB B100D811BBE
FC2E86 E29AC
6B686867 BA6
61B832AC2 F1C5A90F0F9B00
C93A279E3D3EFE 6B686867BA6
47309207D 818FFD8DCD3F83F1931D6843
A27677289986DB 50844682F8ACB77
DCFD35E0 BF8CA7344752DE8B6
13C3703892885 84E7
541FBE7D 8F78B25E055DDEE
22E5E626619 1C37C037D42
92CD8B66A3AD3F4F22C4F ED
05AB33110949707 C93A279E3D3EFE6B686867BA6
79F7026C690BAA50B 92CD8B66A3AD3F4F22C4FED
F7DA48BB64BCB84ECBA7EE6 935CD23C10D498E
A9C5DF4D22E9999 8D9875A5110C01
07E48665A34DCAFAE5 22E5E6266191C37C037D42
A1C506407564C17 A3
FB21E8933C60 243
F3A04C595DB5B6A5F1ECA 43E3B7BBB100D811BBE
61B832AC2F1C5A90F0F9B00 A1C506407564C17A3
47309207D818FFD8DCD3F83F1931D6843 07A10A5
A27677289986DB50844682F8ACB77 FC2E86E29AC
DCFD35E0BF8CA7344752DE8B6 FB21E8933C60243
541FBE7D8F78B25E055DDEE 13C370389288584E7
F7DA48BB64BCB84ECBA7EE6935CD23C10D498E 23
A9C5DF4D22E99998D9875A5110C01 C5A2F6059E7
4 a
F ast
g nore
q make
r ag
v et
AS K
co bb
al go
ch en
ch an
GO GO
py installer
no minatim
git web
build tools
BO ARD
os uos
fa 94
LIB _
18 56
28 4
php7 2
ali p
cor da
FFMPEG _VER
Cont rol
listen er
SECURE _LINK
char set
inf inity
SONAR _SC
gor ith
MAN IFEST
init_ container
FLINK _HOME
WARN ING
tiv ity
RDKAFK A
short _
GOOG LE
ambi entum
METH OD
osuos l
1 A
3 rdp
4 py
6 34
7 AF
8 181
: -@@
C B9
K er
L ang
b x_
j ks
n up
p ony
u ments
de code
as set
po et
open liberty
bo b
pack s
jre _
fa a2
ain fo
6A CC
_U I
26 fb
libx mu
50 50
93 F5
par tial
uni code_
pu db
81 F
extra Configure
PROJECT _NAME
frame works
CONN ECT_
KERN EL_VERSION
egov io
pixbuf 2
JMETER _VERSION
mbed tls
FILEBEAT _VERSION
mob ile
boiler plate
3rdp arty
extraConfigure Args
2 17
D ist
F FI
L M
N CE
_ tmp
p sol
r src
s ab
z std
IT Y_
ar th
dev _user
th om
do s
80 5
debian 8
ing er
90 C
CT YPE
boo lean
prop erty
libx ft
cer n
30 5
DOCKER_ SHA256
libicu 52
MYSQL_ ALLOW_EMPTY_PASSWORD
App Server
/# &/@@
cross build
CONTAINER PILO
jo y
analy ze
bor ing
publish er
HADOOP_ HDF
hand lers
medi ainfo
libxcb 1
CASSANDRA _CONFIG
zy n
solutions _1
gan e
Dep en
ense mbl
ANA CONDA_VERSION
rakudo brew
ustomi ze
PAGESPEED _VERSION
DUMB_INIT _VERSION
declar ative
HADOOP_HDF S_HOME
- >
- !@@
6 BD
8 17
E AM
_ DIRECTORY
_ TOKEN
c j
d w
i exec
t ainer
x l
x jf
EN CRYPT
re use
il o
64 1e2
do ub
DE F_
ti db
ag ne
REP LICATION
ep ar
mo tion
dat um
he at
UNZIP _MODULE
65 bb7
97 3
ama ze
55 2ba
66 d1f
28 b68
_M P4
33 f17
DEBIAN _VERSION
23 f1d
ae a
ae faa2
98 ffa
lab tainer
75 dpi
ros _entrypoint
95 dba
8u 181
_config s
wi k
rh scl
HTTP_ ADDITION
HTTP_ SECURE_LINK
SW ARM
TEST_ AIO_
41 fa
OSX _SDK
eman n
HTTP_G UNZIP_MODULE
Plugin s
78b 65bb7
404 0
fh ir
1328 78b65bb7
;./ ?.
37e6 d0
boring ssl
641e2 66d1f
552ba 132878b65bb7
28b68 641e266d1f
33f17 552ba132878b65bb7
23f1d 95dba
aefaa2 28b68641e266d1f
98ffa 37e6d0
HTTP_ADDITION _MODULE
HTTP_SECURE_LINK _MODULE
33f17552ba132878b65bb7 98ffa37e6d0
23f1d95dba 33f17552ba132878b65bb798ffa37e6d0
aefaa228b68641e266d1f 23f1d95dba33f17552ba132878b65bb798ffa37e6d0
1 _linux_amd64
7 44
8 14
J ASPER
S p
_ internal
b ic
k 3
k cp
m lin
o T
p 256
s cot
ar bon
lib torrent
lib harfbuzz
sh n
mp 3
ec r
ci sco
FA 116
ve sta
be 41fa
ml c
af _
make file
04 6
LIB EDIT
ge om
gi st
01 FA116
2c 876
c4 83b
BIT BUCKET
stream ing
9a 3ab
Open Visual
fd 1856
yp es
BD 9B
native _
397 d88
ec2 fd1856
6f 9a3ab
haskell ci
81e efc
b3c 39e
libd ap
576 be41fa
el6 uek
chrono graf
PHPMY ADMIN
_MON GO
libxrand r
SVT_AV1 _VER
SVT_AV1 _REPO
SPEC S
simul ator
26db b3c39e
d86 26fb
Ber lin
gorele aser
2c876 26dbb3c39e
c483b 576be41fa
OpenVisual Cloud
397d88 c483b576be41fa
ec2fd1856 2c87626dbb3c39e
6f9a3ab 397d88c483b576be41fa
81eefc ec2fd18562c87626dbb3c39e
d8626fb 6f9a3ab397d88c483b576be41fa
d8626fb6f9a3ab397d88c483b576be41fa 81eefcec2fd18562c87626dbb3c39e
6 F5
9 66
E 4
O 1
R TAG
_ auth
_ script
d x
f atal
r up
SI ST
al ba
et te
re j
SH _VERSION
ma est
ker y
deb build
get env
ca 4
tr um
FA BEE
gc s
77 6
sc ada
LA VOR
my x
pip eman
fa a
C2 62
C2 84D
44 C262
33 6
system 1
proxy _
proxy sql
uid _
fre d
libs vm
/$ (
In clude
_sh ell
86F 72
run_ tests
libv 8
remote content
VP X_
Xmx 1G
ste do
health _
655 34
rapid json
1385 CB9
Hello World
ROCKETMQ _HOME
66E BA5
neur al
open_ tag
poli po
nzb get
cartographer_ ros
731 FABEE
9BA 44C262
libdc 1394
short_ open_tag
C284D 731FABEE
86F72 C284D731FABEE
1385CB9 66EBA5
9BA44C262 1385CB966EBA5
9BA44C2621385CB966EBA5 86F72C284D731FABEE
) $
1 E0
7 a7
: %
D VERS
E _VERSION
J S
P UID
P UB
R o
T ri
V _MODULE
_ status
a ux
b cftools
j er
v amp
} :@@
er p
EN CH
lib ib
ch ni
mp fr
dev ic
po l
ph y
docker files
CONFIG _FILE
PHP _MAX_
se lections
da tar
08 db
web logic
xml starlet
44 44
_M ASTER
LD VERS
37 5
EM B
:: =@@
HTTP _FL
a4 9
AM R
s_ output
ln d
Cont ent
WITH_ OPEN
LOCAL _
BRO KER
_PLUGIN S
local_ settings
Comp ress
filesystem 1
tru ffle
mis p
bri ght
FDK_AA C_REPO
PERL 5LIB
cud art
ond rej
who is
jupyter_notebook_config_ py2
0115 68
stedo lan
HTTP_FL V_MODULE
' !@@
1 777
1 E9B
8 CB
D logback
F etch
G UNICOR
I C_VERSION
J W
M R
V O
W S_
_ installer
d ing
e ve
j ms
j ai
m _
m arch
q ml
DOCKER _USER
SCRIPT S_DIR
IF F
loc ker
UP DAT
CD 8CB
th in
ca ch
SHA 384
tr im
10 _
sq ui
pe ople
ne st
include dir
PHP_ EOL
35 8
moz jpeg
DOCKER_ GEN_VERSION
ly nx
ef 6
TOOL KIT
F4 1E7
pa ir
TEST ING
52 E93
cro wd
500 00
0F 1E0
EA 93F5
vol um
E75 1E9B
RUST UP
arg parse
sym bo
MAR V
LIBOP US
sysr epo
B7 57
vari able
FAST CGI
E56 E751E9B
_SPA RK
FIL TER
shrink wrap
AD5B 52E93
maest ro
CD8CB 0F1E0
F41E7 EA93F5
AD5B52E93 F41E7EA93F5
CD8CB0F1E0 AD5B52E93F41E7EA93F5
CD8CB0F1E0AD5B52E93F41E7EA93F5 E56E751E9B
, <
7 000
D one
M IN_
O MP
_ B
_ SUM
a es
c 96
c inder
e at
f _
g 3
i i
j query
@@/ $
co q
sr d3
ro ach
00 b
jdk 8u212
SY S_
LIB FREETYPE
dotnet app
xml writer
19 227
ali gn
SYSTEM _
doc uments
cre ds
89 55
map s
bind ing
cpp check
ln x
9c 9
perf test
mod_ ssl
ANDROID_SDK _FILENAME
remote_ autostart
237 5
409 6
glassfish _admin
GRAALVM _HOME
pgadmin 4
sysr oot
SVT_VP9 _VER
SVT_VP9 _REPO
spac ely
WL P_
dataso urce
Enable d
compil ers
wiz ard
*= ).*!\
1 bc
A CA
D 42
F G
K AR
M HASH
S che
W IN
m z
v ab8
z inc
DOCKER DIR
AL WAY
in ess
ar ping
er ces
al gorith
AD 6
ALL OC
com bin
ip sec
ip adic
down lo
CA A
80 88
ep t
base url
_RE QUIRE
ct ags
ze o
BA MBO
libx damage
OPEN CORE
74 0
dh i
mx 6
49 00
Pro duct
tc z
az aar
sha un
_N ON
coo ki
gtk 2
spring boot
lan doop
change log
generate _
DEPLOY MENT
ubuntu14 04
Tool chain
VAR S
dub bo
JULI A_VERSION
delu ge
look up
NEXTCLOUD_ TARBALL
ODM DOCKERDIR
netcore app
unicode_ ci
thom as
vab8 20
" "
- #@@
3 as
4 d
: !
C 7E
F U
P HO
S epar
g 8
k ms
p ci
w illi
z c7
ER _PATH
AP _PUBLIC_KEY
INSTALL _ROOT
at as
py mongo
py 27
USER _
ti s
ca libre
tr igger
comm ent
PORT _
SILE NCE
ts 4900
google code
END ECA
devel _
sp ath
auto scaler
mon ero
rpm devtools
postgres Home
read y
check install
lay ers
vendor s
PRODU CT
BER CMS_
puppet eer
GR AV
libX ext
mqtt 3a
mqtt 3as
tele gram
syn th
WH AT
deco der
NVIDIA_ GPGKEY
rev pi
persist ence
SSL_ CERT
_worker s_output
p2 p
GRAALVM _VERSION
mqtt3c s
exim 4
MESS AGE
Custom Log
OCTO BERCMS_
OPEND AP_PUBLIC_KEY
opentrac ing
zyn q7
WLP_ OUTPUT_DIR
zc7 02
( )@@
5 D
9 d4
D aaS
P erm
W no
_ package
f pic
n sq
s ke
z opf
st alk
me an
arm an
di am
ep tion
CLONE _TAG
id y
pub sub
PRO XY_
&& \
JO B_
par ts
_ROOT _WARNING
ms gs
8u 111
imp l
ALIN O
libav util
sph ere
AGENT _
180 4
BUNDLE_ SILENCE
WAR _URL
kar dian
strong swan
mkl ml
WORDPRESS_ SHA1
[^ <
wso 2c
zu ul
POSTGRESQ L_
OSXCROSS_ PATH
Ht tp
gadget ron
BUNDLE_SILENCE _ROOT_WARNING
kardian os
E xt
H ot
I DE
R ST
T AL
_ CHMOD
_ max
a ver
a em
b link
c ts
f pie
r ace
v ector
TAR _FILE
op ia
sh ape
mp c
fi eld
no to
app ly
open rc
up per
and y
pro ftpd
@@" /.
google _appengine
cli p
s3 fs
libc xx
pe loton
gen sim
include s
ros 2
mes on
jav ac
/* :$
Ad ministrator
GRAD ES
WSO 2
WSO2_SERVER _VERSION
x265 _
POSTGI S_
authentic ation
blu e
Fr ame
QEM U
pydoc 3
START UP
GCC_LIB S_URL
libxcursor 1
FDKAA C_VERSION
p256 k1
" ]
# /
1 F7
B 97
C 00
D ev
G TEST
Z _VERSION
_ libraries
c ask
e 1
h op
j on
k op
n solid
p aper
ALL _
it ies
an ces
@@- --
open dkim
BO X
pro mpt
config db
fo g
rc nn
main line
da 1
17 815
link mode
libg dk
BA EEB
23 BAEEB
FL UME
HTTP _PROXY
pet sc
let on
mail man
gre mlin
pri vo
va api
_BASE _DIR
CONNECT ION
change me
AWS_ ACCESS_KEY
A3 8955
9FF 1F7
datas ets
OV S_VERSION
LIBAS S
C3 65BD
spam d
initiali ze
GRI D_
_STAR T_
cros stool
421 C365BD
ERL_ TOP
HAWK BIT
lnmp 1
Fetch ing
atas un
17815 A38955
23BAEEB 01FA116
privo xy
9FF1F7 17815A38955
421C365BD 9FF1F717815A38955
421C365BD9FF1F717815A38955 23BAEEB01FA116
' \
1 fa
7 16
8 23
A B_
C TED
E CD
N V
b ib
b dd
d mlc
e e4
f m
l cms2
n em
w en
ER S_
al ec
CE B
lib www
as q
as ign
CD 88
SET _
up start
LINK S
12 6
av r
OVER RI
EXT ERNAL
su mo
su zen
LIB _INSTALL_DIR
ge op
web root
VI LE
84 3
sl y
asp ace
bug s
libs mi
ta bu
WORK ERS
sonar source
GR AF_VERSION
STREAM _SSL_MODULE
RUST _VERSION
OGG _REPO
syn cd
X265 _REPO
langu ages
X264 _VER
X264 _REPO
MP3LAME _REPO
writ es
aut oc
AOM _VER
AOM _REPO
men u
cud asign
THEOR A_
Met aspace
1ubuntu 1
VPX _VER
OPUS_ REPO
VORBIS_ REPO
mapp ing
libgsl 0
Catal ina
Ed ge
_CRO SS
VPX_ REPO
zeo server
G AD
L ic
S tudio
Z AB
_ JAR
e qu
f process
h ue
n av
t alk
v ue
} '@@
@@ ;
ER _HOME
GET RON
ON _
er d
NO TE
gz hou
go o
go ver
linux deploy
py proj
tmp dir
ser t
EXP ER
DE 5
am an
ut opic
80 86
fa 2af
28 7
trusty 1_amd64
57 A
ty ping
mongo ose
DOWN GRADES
install_ url
20180 83
hy dra
TOOL BOX_
Ch ange
abric ator
dynam ics
vs code
sen sor
CROSS_ NAME
mm db
MAN _DIR
rep lication
han gzhou
ao media
_ST OR
Password Authentication
Res o
RDKAFK A_
spat ial
SENTRY _VERSION
APPD_ AGENT_VERSION
THIR D
willi am
DaaS Demo
GAD GETRON
ZAB BI
) /@@
7 83
9 25
D is
M ASTER
P ay
P atch
S AM
Y O
_ id
b de
f 20
g lo
g flags
o mp
t g
CK _ROOT
CH AR
co ol
IP v4
fi edA
ma ger
00 7
ic ec
php cs
10 gen
ed itor
gle vel
SERVER _HOME
15 20
JAVA 7
base d
No tification
web sock
07 F
ae ger
HTTP _MP4
BIT DEPTH
In it
TOMCAT _DIR
/^ (
sche me
BASE_ TAG
ug h
dump cap
', '
miss ing
/* /
NC WMS
ox ford
zen hei
nanop ortal
ZLIB _URL
sur ic
COL OR
lamb ci
Set tings
libnet filter
pan el
osr foundation
******** ********
sin opia
_linux_hotspot_ 2019
READLINE _VERSION
ROS 2_
CNTK_VERSION _DASH
weight s
grpc_ health_
golo sd
Classi fiedA
bx_ dev_user
Dist ribu
wso2c arbon
Metaspace Size
fa2af 80
HTTP_MP4 _MODULE
oxford nanoportal
CNTK_VERSION_DASH ED
ClassifiedA ds
9 54
A ler
E mpty
H TS
I CK
N R
O O
S tor
S 3_
U tils
_ LOCATION
_ WEB
a 38
b pm
b ill
g 2
h old
j x
r sp
r ally
w ol
x init
le ge
ap line
KE LE
bin der
CD 4
NODE JS_
OW 2_
10 90
16 0
12 _openj9
14 56
LIB XML
au se
ft di
_RE DIS_
28 2
super vi
_F R
SUB DIRS
92 f
x64 _bin
cv s
cer ebro
HE AP
AC _VER
200 m
BER KELE
KNOWAGE_ OW2_
VP X_VERSION
BAZ EL
libso up
APP_ JAR
ASC _URLS
exif tool
MONGO DB_VERSION
kar ma
ACCE PT_
BUNDLE D
yo lo
GU AC_VER
AOM _VERSION
bri g
alex el
SPR ING_
RESTY _PCRE
libas an
_for _
mov ing
HIGH BITDEPTH
utf8_ unicode_ci
libsn dfile
Perm Size
mager un
RESTY_PCRE _VERSION
% (
f arm
f ine
i co
i ver
m gr
n APT
o so
r rd
s b
s ac
v as
SC REEN
ME THE
RE AL
in secure
en cy
lib exif
re cogn
MOD S_DIR
loc ust
HO OK
install Github
ca ke
bo dhi
@@./ *.
99 6
S_ SHA256SUM
dl v
plu g
B_ SHA256SUM
PRO METHE
07 0
78 9
enable devtoolset
runtime Deps
LC_ CTYPE
AE 8B
adv ance
imp ala
AM R_VERSION
kno w
bind ings
TARBALL _SHA
Pro file
HTTP_ RANDOM
_PRO VID
_LOG _LEVEL
lib32 gcc
STA B_SHA256SUM
OGG _SHA256SUM
vl c
ngx_http_ image_filter_module
HBASE _HOME
FREETYPE _SHA256SUM
_INDEX _MODULE
infra structure
XVID _SHA256SUM
LIBVID STAB_SHA256SUM
PREST O_VERSION
_PRI VATE
NIFI _HOME
OPUS_ SHA256SUM
VORBIS_ SHA256SUM
LIBOPEN CORE
oce an
ORIENTDB_ DOWNLOAD
OPENCORE AMR_VERSION
kop ano
THEORA_ SHA256SUM
grpc_health_ probe
HTTP_RANDOM _INDEX_MODULE
2 94
2 C4
8 64
9 554
M in
S i
S A_
V TT
X SL
j am
k ac
p ul
r _
z alan
co res
st aff
et htool
oc l
SO AP
lin da
py dio
ma lice
lo glevel
DE BE
00 m
ph abricator
jdk 12
docker io
io streams
ri emann
lu sh
ex clu
fl ash
_REPO _
_FILE S
android _
sync _gateway
we ather
fast start
CRO WD
:- "
NEO4J_ EDITION
